{
  "version": "1.0",
  "truncation": null,
  "padding": null,
  "added_tokens": [
    {
      "id": 0,
      "content": "<unk>",
      "single_word": false,
      "lstrip": false,
      "rstrip": false,
      "normalized": false,
      "special": true
    },
    {
      "id": 1,
      "content": "<s>",
      "single_word": false,
      "lstrip": false,
      "rstrip": false,
      "normalized": false,
      "special": true
    },
    {
      "id": 2,
      "content": "</s>",
      "single_word": false,
      "lstrip": false,
      "rstrip": false,
      "normalized": false,
      "special": true
    }
  ],
  "normalizer": null,
  "pre_tokenizer": {
    "type": "ByteLevel",
    "add_prefix_space": false,
    "trim_offsets": true,
    "use_regex": true
  },
  "post_processor": null,
  "decoder": {
    "type": "ByteLevel",
    "add_prefix_space": true,
    "trim_offsets": true,
    "use_regex": true
  },
  "model": {
    "type": "BPE",
    "dropout": null,
    "unk_token": null,
    "continuing_subword_prefix": null,
    "end_of_word_suffix": null,
    "fuse_unk": false,
    "byte_fallback": false,
    "ignore_merges": false,
    "vocab": {
      "<unk>": 0,
      "<s>": 1,
      "</s>": 2,
      "!": 3,
      "\"": 4,
      "#": 5,
      "$": 6,
      "%": 7,
      "&": 8,
      "'": 9,
      "(": 10,
      ")": 11,
      "*": 12,
      "+": 13,
      ",": 14,
      "-": 15,
      ".": 16,
      "/": 17,
      "0": 18,
      "1": 19,
      "2": 20,
      "3": 21,
      "4": 22,
      "5": 23,
      "6": 24,
      "7": 25,
      "8": 26,
      "9": 27,
      ":": 28,
      ";": 29,
      "<": 30,
      "=": 31,
      ">": 32,
      "?": 33,
      "@": 34,
      "A": 35,
      "B": 36,
      "C": 37,
      "D": 38,
      "E": 39,
      "F": 40,
      "G": 41,
      "H": 42,
      "I": 43,
      "J": 44,
      "K": 45,
      "L": 46,
      "M": 47,
      "N": 48,
      "O": 49,
      "P": 50,
      "Q": 51,
      "R": 52,
      "S": 53,
      "T": 54,
      "U": 55,
      "V": 56,
      "W": 57,
      "X": 58,
      "Y": 59,
      "Z": 60,
      "[": 61,
      "\\": 62,
      "]": 63,
      "^": 64,
      "_": 65,
      "`": 66,
      "a": 67,
      "b": 68,
      "c": 69,
      "d": 70,
      "e": 71,
      "f": 72,
      "g": 73,
      "h": 74,
      "i": 75,
      "j": 76,
      "k": 77,
      "l": 78,
      "m": 79,
      "n": 80,
      "o": 81,
      "p": 82,
      "q": 83,
      "r": 84,
      "s": 85,
      "t": 86,
      "u": 87,
      "v": 88,
      "w": 89,
      "x": 90,
      "y": 91,
      "z": 92,
      "{": 93,
      "|": 94,
      "}": 95,
      "~": 96,
      "¡": 97,
      "¢": 98,
      "£": 99,
      "¤": 100,
      "¥": 101,
      "¦": 102,
      "§": 103,
      "¨": 104,
      "©": 105,
      "ª": 106,
      "«": 107,
      "¬": 108,
      "®": 109,
      "¯": 110,
      "°": 111,
      "±": 112,
      "²": 113,
      "³": 114,
      "´": 115,
      "µ": 116,
      "¶": 117,
      "·": 118,
      "¸": 119,
      "¹": 120,
      "º": 121,
      "»": 122,
      "¼": 123,
      "½": 124,
      "¾": 125,
      "¿": 126,
      "À": 127,
      "Á": 128,
      "Â": 129,
      "Ã": 130,
      "Ä": 131,
      "Å": 132,
      "Æ": 133,
      "Ç": 134,
      "È": 135,
      "É": 136,
      "Ê": 137,
      "Ë": 138,
      "Ì": 139,
      "Í": 140,
      "Î": 141,
      "Ï": 142,
      "Ð": 143,
      "Ñ": 144,
      "Ò": 145,
      "Ó": 146,
      "Ô": 147,
      "Õ": 148,
      "Ö": 149,
      "×": 150,
      "Ø": 151,
      "Ù": 152,
      "Ú": 153,
      "Û": 154,
      "Ü": 155,
      "Ý": 156,
      "Þ": 157,
      "ß": 158,
      "à": 159,
      "á": 160,
      "â": 161,
      "ã": 162,
      "ä": 163,
      "å": 164,
      "æ": 165,
      "ç": 166,
      "è": 167,
      "é": 168,
      "ê": 169,
      "ë": 170,
      "ì": 171,
      "í": 172,
      "î": 173,
      "ï": 174,
      "ð": 175,
      "ñ": 176,
      "ò": 177,
      "ó": 178,
      "ô": 179,
      "õ": 180,
      "ö": 181,
      "÷": 182,
      "ø": 183,
      "ù": 184,
      "ú": 185,
      "û": 186,
      "ü": 187,
      "ý": 188,
      "þ": 189,
      "ÿ": 190,
      "Ā": 191,
      "ā": 192,
      "Ă": 193,
      "ă": 194,
      "Ą": 195,
      "ą": 196,
      "Ć": 197,
      "ć": 198,
      "Ĉ": 199,
      "ĉ": 200,
      "Ċ": 201,
      "ċ": 202,
      "Č": 203,
      "č": 204,
      "Ď": 205,
      "ď": 206,
      "Đ": 207,
      "đ": 208,
      "Ē": 209,
      "ē": 210,
      "Ĕ": 211,
      "ĕ": 212,
      "Ė": 213,
      "ė": 214,
      "Ę": 215,
      "ę": 216,
      "Ě": 217,
      "ě": 218,
      "Ĝ": 219,
      "ĝ": 220,
      "Ğ": 221,
      "ğ": 222,
      "Ġ": 223,
      "ġ": 224,
      "Ģ": 225,
      "ģ": 226,
      "Ĥ": 227,
      "ĥ": 228,
      "Ħ": 229,
      "ħ": 230,
      "Ĩ": 231,
      "ĩ": 232,
      "Ī": 233,
      "ī": 234,
      "Ĭ": 235,
      "ĭ": 236,
      "Į": 237,
      "į": 238,
      "İ": 239,
      "ı": 240,
      "Ĳ": 241,
      "ĳ": 242,
      "Ĵ": 243,
      "ĵ": 244,
      "Ķ": 245,
      "ķ": 246,
      "ĸ": 247,
      "Ĺ": 248,
      "ĺ": 249,
      "Ļ": 250,
      "ļ": 251,
      "Ľ": 252,
      "ľ": 253,
      "Ŀ": 254,
      "ŀ": 255,
      "Ł": 256,
      "ł": 257,
      "Ń": 258,
      "ä¸": 259,
      "ï¼": 260,
      "çļ": 261,
      "çļĦ": 262,
      "ï¼Į": 263,
      "ãĢ": 264,
      "ãĢĤ": 265,
      "äº": 266,
      "ä»": 267,
      "åı": 268,
      "æľ": 269,
      "è¿": 270,
      "æĪ": 271,
      "åħ": 272,
      "ä½": 273,
      "æĺ": 274,
      "å¤": 275,
      "è¯": 276,
      "ä¸Ģ": 277,
      "æĸ": 278,
      "å®": 279,
      "çĶ": 280,
      "åĪ": 281,
      "åĴ": 282,
      "åľ": 283,
      "åĴĮ": 284,
      "åĲ": 285,
      "åĬ": 286,
      "ç»": 287,
      "ä¹": 288,
      "æĺ¯": 289,
      "å°": 290,
      "åŃ": 291,
      "ä¸ª": 292,
      "ä»¥": 293,
      "è®": 294,
      "ãĢģ": 295,
      "æĪĳ": 296,
      "åľ¨": 297,
      "äºº": 298,
      "ĥ½": 299,
      "</": 300,
      "æľī": 301,
      "ï¼ļ": 302,
      "æĹ": 303,
      "äºĨ": 304,
      "åı¯": 305,
      "è¿Ļ": 306,
      "åĽ": 307,
      "æĿ": 308,
      "åº": 309,
      "éĩ": 310,
      "å¹": 311,
      "å¸": 312,
      "ä¸Ń": 313,
      "ä¼": 314,
      "éĢ": 315,
      "è¡": 316,
      "èĥ½": 317,
      "çļĦæ": 318,
      "åĩ": 319,
      "ãĢĤ</": 320,
      "å·": 321,
      "æĸĩ": 322,
      "åĮ": 323,
      "è¦": 324,
      "è¦ģ": 325,
      "é¢": 326,
      "å¾": 327,
      "å¯": 328,
      "åĨ": 329,
      "ä¸º": 330,
      "è§": 331,
      "å¥": 332,
      "çī": 333,
      "ç§": 334,
      "ä»¬": 335,
      "éĹ": 336,
      "çİ": 337,
      "å¼": 338,
      "ä¸į": 339,
      "çĶ¨": 340,
      "æķ": 341,
      "èĢ": 342,
      "å½": 343,
      "æĢ": 344,
      "æŀ": 345,
      "çĶŁ": 346,
      "çŃ": 347,
      "æı": 348,
      "æī": 349,
      "æŃ": 350,
      "åı¯ä»¥": 351,
      "éĿ": 352,
      "åį": 353,
      "Ġ<": 354,
      "ä¿": 355,
      "æĬ": 356,
      "æł": 357,
      "æ³": 358,
      "çĽ": 359,
      "âĢ": 360,
      "æĿ¥": 361,
      "èĩ": 362,
      "æĦ": 363,
      "åĵ": 364,
      "å¦": 365,
      "ä¸ĭ": 366,
      "çĲ": 367,
      "ä¸Ģä¸ª": 368,
      "æĪĲ": 369,
      "åİ": 370,
      "æĥ": 371,
      "æıĲ": 372,
      "æ°": 373,
      "åĪ°": 374,
      "ä»ĸ": 375,
      "æĽ": 376,
      "åŃ¦": 377,
      "æĻ": 378,
      "å¦Ĥ": 379,
      "è¡Į": 380,
      "åĩº": 381,
      "åĳ": 382,
      "å¿": 383,
      "æĹ¶": 384,
      "å¯¹": 385,
      "æĭ": 386,
      "ä½ł": 387,
      "åŃĲ": 388,
      "ä¾": 389,
      "äºİ": 390,
      "æİ": 391,
      "åľ°": 392,
      "é¢ĺ": 393,
      "ä¸Ĭ": 394,
      "ç«": 395,
      "æĶ": 396,
      "å°ı": 397,
      "è´": 398,
      "å¥½": 399,
      "ä¼ļ": 400,
      "æĸ¹": 401,
      "çŃī": 402,
      "æľ¬": 403,
      "åĪĨ": 404,
      "èĩª": 405,
      "æĽ´": 406,
      "äºĽ": 407,
      "å¤ļ": 408,
      "æµ": 409,
      "æ¯": 410,
      "èµ": 411,
      "å¤§": 412,
      "å±": 413,
      "æį": 414,
      "ï¼Ł": 415,
      "ä½ľ": 416,
      "åĬ¨": 417,
      "å·¥": 418,
      "çī©": 419,
      "çº": 420,
      "åħ³": 421,
      "è¾": 422,
      "å¹¶": 423,
      "åıĳ": 424,
      "ç®": 425,
      "æĮ": 426,
      "ç±": 427,
      "é£": 428,
      "éľ": 429,
      "æĪĳä»¬": 430,
      "éĿ¢": 431,
      "æ´": 432,
      "å®ļ": 433,
      "æľĢ": 434,
      "åħ¶": 435,
      "æŀľ": 436,
      "æ¬": 437,
      "åŁ": 438,
      "ç§į": 439,
      "çİ°": 440,
      "çļĦç": 441,
      "è¿Ľ": 442,
      "æ³ķ": 443,
      "éĻ": 444,
      "æĤ": 445,
      "è¿ĩ": 446,
      "éĹ®": 447,
      "åģ": 448,
      "æ¸": 449,
      "ä½ĵ": 450,
      "èī": 451,
      "æį®": 452,
      "å¤©": 453,
      "å®ĥ": 454,
      "ç»Ļ": 455,
      "åĬĽ": 456,
      "çĲĨ": 457,
      "æĺİ": 458,
      "éľĢ": 459,
      "æ²": 460,
      "å°Ĩ": 461,
      "ç±»": 462,
      "åºĶ": 463,
      "åĬł": 464,
      "æĸ°": 465,
      "éģ": 466,
      "çĤ": 467,
      "åĮĸ": 468,
      "æĢ§": 469,
      "çĦ": 470,
      "åĲĮ": 471,
      "é«": 472,
      "æĪĸ": 473,
      "ä½¿": 474,
      "åĽł": 475,
      "å¸¸": 476,
      "éĩį": 477,
      "ä¿Ŀ": 478,
      "åı¥": 479,
      "çľ": 480,
      "é«ĺ": 481,
      "è½": 482,
      "æĦŁ": 483,
      "å®¶": 484,
      "ä¹Ł": 485,
      "å½±": 486,
      "è¶": 487,
      "æľº": 488,
      "ä¸»": 489,
      "æ±": 490,
      "éĶ": 491,
      "è¯Ń": 492,
      "éĺ": 493,
      "çĦ¶": 494,
      "ç«ł": 495,
      "âĢĿ": 496,
      "å¾Ĺ": 497,
      "æķ°": 498,
      "æĸĩç«ł": 499,
      "éĢļ": 500,
      "åĵģ": 501,
      "âĢľ": 502,
      "ç³": 503,
      "éľĢè¦ģ": 504,
      "çĶµ": 505,
      "æĻº": 506,
      "è°": 507,
      "æĬĢ": 508,
      "è§£": 509,
      "æĸĩæľ¬": 510,
      "ä¹ĭ": 511,
      "æĤ¨": 512,
      "ä¹Ī": 513,
      "æĥħ": 514,
      "éĹ®é¢ĺ": 515,
      "åº¦": 516,
      "çŁ": 517,
      "åī": 518,
      "è¡¨": 519,
      "èĢĮ": 520,
      "æģ": 521,
      "ç»ı": 522,
      "æĻºèĥ½": 523,
      "è¯·": 524,
      "çĿ": 525,
      "å¾Ī": 526,
      "éĹ´": 527,
      "åĸ": 528,
      "æŃ¤": 529,
      "èĬ": 530,
      "ç¾": 531,
      "å¢": 532,
      "åħ¬": 533,
      "åĽ½": 534,
      "éĩı": 535,
      "ç©": 536,
      "çĤ¹": 537,
      "ç¤": 538,
      "æľ¯": 539,
      "èī²": 540,
      "èĤ": 541,
      "èĢħ": 542,
      "è¯į": 543,
      "å¹´": 544,
      "æ°Ķ": 545,
      "å®ŀ": 546,
      "å»": 547,
      "åıĸ": 548,
      "åĢ": 549,
      "è¿Ļä¸ª": 550,
      "ä¿¡": 551,
      "ä¹ł": 552,
      "åĲį": 553,
      "ç¨": 554,
      "å¿ĥ": 555,
      "ä½Ĩ": 556,
      "åĲĪ": 557,
      "æĦı": 558,
      "è¯¥": 559,
      "ä¸ļ": 560,
      "ä¾Ľ": 561,
      "çĸ": 562,
      "è®¡": 563,
      "åĲİ": 564,
      "éĤ": 565,
      "ç¡": 566,
      "ä»¥ä¸ĭ": 567,
      "äºĭ": 568,
      "æīĢ": 569,
      "ä»İ": 570,
      "è¿ĺ": 571,
      "å»º": 572,
      "æ®": 573,
      "çĽ¸": 574,
      "çĿĢ": 575,
      "çĲĥ": 576,
      "ä¸ĢäºĽ": 577,
      "éĥ½": 578,
      "æ´»": 579,
      "åĮħ": 580,
      "æıĲä¾Ľ": 581,
      "ä¸İ": 582,
      "ç¾İ": 583,
      "æł¹": 584,
      "è¿Ľè¡Į": 585,
      "æŁ": 586,
      "åı¥åŃĲ": 587,
      "å¼ı": 588,
      "ç½": 589,
      "é£Ł": 590,
      "è¿°": 591,
      "å±ķ": 592,
      "éĩĮ": 593,
      "äººå·¥": 594,
      "åħ¥": 595,
      "åħ¨": 596,
      "å¤ĸ": 597,
      "é¡": 598,
      "çİ¯": 599,
      "çķ": 600,
      "çī¹": 601,
      "ä½¿çĶ¨": 602,
      "èĲ": 603,
      "ç´": 604,
      "æĥ³": 605,
      "éĿŀ": 606,
      "äººå·¥æĻºèĥ½": 607,
      "é¦": 608,
      "ç¯": 609,
      "åĨħ": 610,
      "æŃ£": 611,
      "è¢": 612,
      "æ¡": 613,
      "å¼Ģ": 614,
      "å½ĵ": 615,
      "åİ»": 616,
      "éļ": 617,
      "æł¹æį®": 618,
      "éķ": 619,
      "æģ¯": 620,
      "æ·": 621,
      "åıĺ": 622,
      "æ°´": 623,
      "æ¯Ķ": 624,
      "æ®µ": 625,
      "åĨĻ": 626,
      "æĺ¯ä¸Ģ": 627,
      "åŀ": 628,
      "éĥ": 629,
      "ç³»": 630,
      "è·": 631,
      "èģ": 632,
      "åĬ©": 633,
      "è¯´": 634,
      "åŃ¦ä¹ł": 635,
      "ç¨ĭ": 636,
      "åĪ¶": 637,
      "åħ·": 638,
      "ç¡®": 639,
      "å¸Ĥ": 640,
      "ä»Ģ": 641,
      "è®©": 642,
      "éĽ": 643,
      "æĮģ": 644,
      "éģĵ": 645,
      "åĿ": 646,
      "çľĭ": 647,
      "ç¯ĩ": 648,
      "ç¼": 649,
      "äº§": 650,
      "èµ·": 651,
      "çĥ": 652,
      "åķ": 653,
      "ç»ĵ": 654,
      "ä»Ģä¹Ī": 655,
      "æĬĢæľ¯": 656,
      "å¸®": 657,
      "èº": 658,
      "åıĬ": 659,
      "è¯Ŀ": 660,
      "éĤ£": 661,
      "ç¬": 662,
      "çĽ®": 663,
      "éĥ¨": 664,
      "èĭ": 665,
      "ä½ķ": 666,
      "éķ¿": 667,
      "éĿŀå¸¸": 668,
      "èį": 669,
      "åĬ¡": 670,
      "ç®Ĺ": 671,
      "æ¯ı": 672,
      "è¢«": 673,
      "èº«": 674,
      "çĭ": 675,
      "æĹ¥": 676,
      "åģ¥": 677,
      "ç§ĳ": 678,
      "å°ĳ": 679,
      "å·±": 680,
      "åīį": 681,
      "åĻ": 682,
      "åĸľ": 683,
      "éħ": 684,
      "æĭ¬": 685,
      "èĩªå·±": 686,
      "éĢĤ": 687,
      "åľº": 688,
      "åıĹ": 689,
      "å®¹": 690,
      "åı¯èĥ½": 691,
      "æ¬¢": 692,
      "åĽŀ": 693,
      "æĹł": 694,
      "ä¿¡æģ¯": 695,
      "ä»ĸä»¬": 696,
      "åĻ¨": 697,
      "éĢī": 698,
      "åĮ»": 699,
      "äº¤": 700,
      "ä»£": 701,
      "å¥½çļĦ": 702,
      "åŀĭ": 703,
      "é¢Ĩ": 704,
      "åĪ«": 705,
      "èĻ": 706,
      "çł": 707,
      "çĶµå½±": 708,
      "å¤Ħ": 709,
      "è¨": 710,
      "é¥": 711,
      "çŃĶ": 712,
      "éª": 713,
      "æ¶": 714,
      "çĪ": 715,
      "åĪ©": 716,
      "ä½į": 717,
      "è´¨": 718,
      "æ»": 719,
      "è®®": 720,
      "é£İ": 721,
      "ä¸¤": 722,
      "å¹³": 723,
      "å¢ĥ": 724,
      "æ¡Ī": 725,
      "æīĭ": 726,
      "å§": 727,
      "çĹ": 728,
      "è¿ĻäºĽ": 729,
      "ä¾ĭ": 730,
      "å¦Ĥæŀľ": 731,
      "éĢļè¿ĩ": 732,
      "éĩįè¦ģ": 733,
      "éŁ": 734,
      "ä¸ŃçļĦ": 735,
      "ä»»": 736,
      "åĵį": 737,
      "çĶŁæĪĲ": 738,
      "ä»¶": 739,
      "åĮħæĭ¬": 740,
      "è®º": 741,
      "åŃĹ": 742,
      "åŁŁ": 743,
      "åı¸": 744,
      "è¨Ģ": 745,
      "å°ıæĺİ": 746,
      "åıĳå±ķ": 747,
      "åºĶçĶ¨": 748,
      "å°±": 749,
      "çĻ": 750,
      "æłĩ": 751,
      "ç®Ģ": 752,
      "æ²¡": 753,
      "åĪĽ": 754,
      "åĨ³": 755,
      "æ±Ĥ": 756,
      "åįķ": 757,
      "è§Ĥ": 758,
      "æĶ¹": 759,
      "æĶ¾": 760,
      "æ¸¸": 761,
      "æİ¨": 762,
      "èĪ": 763,
      "æľª": 764,
      "åıª": 765,
      "å½±åĵį": 766,
      "è®¾": 767,
      "çģ": 768,
      "æĹ¶éĹ´": 769,
      "çŁ¥": 770,
      "åº·": 771,
      "ç»Ł": 772,
      "ä¸ī": 773,
      "æĢ»": 774,
      "å¸®åĬ©": 775,
      "ç¥": 776,
      "æľŁ": 777,
      "å£": 778,
      "åĸľæ¬¢": 779,
      "é»": 780,
      "æº": 781,
      "ä¹Ĳ": 782,
      "æıı": 783,
      "èĬĤ": 784,
      "åħ¬åı¸": 785,
      "è¯Ĩ": 786,
      "æķĪ": 787,
      "åģ¥åº·": 788,
      "æµ·": 789,
      "æ¨": 790,
      "å¼º": 791,
      "å¤Ł": 792,
      "èĥ": 793,
      "ç»Ļå®ļ": 794,
      "ç¤¾": 795,
      "æĸŃ": 796,
      "äººç±»": 797,
      "åĩı": 798,
      "æĳ": 799,
      "æ³¨": 800,
      "æŀģ": 801,
      "é¢ĨåŁŁ": 802,
      "å®ī": 803,
      "æ¼": 804,
      "çĶŁæ´»": 805,
      "è¾¾": 806,
      "æ·±": 807,
      "æł·": 808,
      "çĶ±": 809,
      "æľį": 810,
      "åĽłæŃ¤": 811,
      "çĸĹ": 812,
      "ä¸įåĲĮ": 813,
      "å·¥ä½ľ": 814,
      "çİ¯å¢ĥ": 815,
      "æŃ¥": 816,
      "è±": 817,
      "é©": 818,
      "èĦ": 819,
      "æĺŁ": 820,
      "éŁ³": 821,
      "æķ°æį®": 822,
      "å½¢": 823,
      "å¤ª": 824,
      "æµģ": 825,
      "åİŁ": 826,
      "åģļ": 827,
      "ä¸ĸ": 828,
      "å·²": 829,
      "åıĭ": 830,
      "æıĲåıĸ": 831,
      "èİ": 832,
      "è½¦": 833,
      "æĻ¯": 834,
      "æııè¿°": 835,
      "æ²¡æľī": 836,
      "å¸¦": 837,
      "åĽłä¸º": 838,
      "æ¬¡": 839,
      "è¿Ĳ": 840,
      "å¯¼": 841,
      "æĪ·": 842,
      "çĮ": 843,
      "åĳĺ": 844,
      "èı": 845,
      "éĴ": 846,
      "ç²": 847,
      "éĶ®": 848,
      "å»ºè®®": 849,
      "æ¨¡": 850,
      "æĸĻ": 851,
      "è¯ķ": 852,
      "æıĲé«ĺ": 853,
      "èĩªçĦ¶": 854,
      "æī¾": 855,
      "å®ĥä»¬": 856,
      "å¦Ĥä½ķ": 857,
      "åŁº": 858,
      "è®¤": 859,
      "ãĢĭ": 860,
      "ãĢĬ": 861,
      "åİĨ": 862,
      "å¥¹": 863,
      "åŁİ": 864,
      "æĽ´åĬł": 865,
      "ä¹ī": 866,
      "ä¼ł": 867,
      "åĲĦ": 868,
      "æºĲ": 869,
      "åħ³éĶ®": 870,
      "ä¸»è¦ģ": 871,
      "ç¤º": 872,
      "æĬ¤": 873,
      "æĭ©": 874,
      "æł¼": 875,
      "åĲĳ": 876,
      "æĮĩ": 877,
      "ç»Ħ": 878,
      "æĸ¹å¼ı": 879,
      "åºĶè¯¥": 880,
      "éĢł": 881,
      "çļĦæķ": 882,
      "æĹħ": 883,
      "çķĮ": 884,
      "éĢīæĭ©": 885,
      "åĲĮæĹ¶": 886,
      "è¿ĳ": 887,
      "åħī": 888,
      "èĥ½å¤Ł": 889,
      "èĲ½": 890,
      "ç¯ĩæĸĩç«ł": 891,
      "ç©¶": 892,
      "è£": 893,
      "åĨħå®¹": 894,
      "äººä»¬": 895,
      "è°ĥ": 896,
      "ï¼Ľ": 897,
      "è¯Ńè¨Ģ": 898,
      "åı£": 899,
      "çĪ±": 900,
      "åĮº": 901,
      "çº¢": 902,
      "èĢĥ": 903,
      "è§Ĩ": 904,
      "ä»·": 905,
      "åĳ³": 906,
      "ç©º": 907,
      "åĲĹ": 908,
      "ç½ĳ": 909,
      "åħ³äºİ": 910,
      "èĬ±": 911,
      "çĬ": 912,
      "ä¾ĭå¦Ĥ": 913,
      "åĳĬ": 914,
      "æĺ¯ä¸Ģä¸ª": 915,
      "é¤": 916,
      "æľªæĿ¥": 917,
      "çĹħ": 918,
      "è®¡ç®Ĺ": 919,
      "æĸ¹éĿ¢": 920,
      "æĸ¹æ³ķ": 921,
      "å¿«": 922,
      "æľºåĻ¨": 923,
      "é¢Ħ": 924,
      "é¤Ĳ": 925,
      "å¹¿": 926,
      "ç®¡": 927,
      "å¢ŀ": 928,
      "Ķç©¶": 929,
      "ä¹¦": 930,
      "åķĨ": 931,
      "éªĮ": 932,
      "ä¸Ķ": 933,
      "ï¼ī": 934,
      "ç¦": 935,
      "æĢĿ": 936,
      "é¦ĸ": 937,
      "å®Į": 938,
      "åĩĨ": 939,
      "åĪ°äºĨ": 940,
      "åĩł": 941,
      "éĵ": 942,
      "éĶĻ": 943,
      "å®¢": 944,
      "é¡¹": 945,
      "åħ¶ä»ĸ": 946,
      "ä¼ĺ": 947,
      "è¶Ĭ": 948,
      "ä»¥åıĬ": 949,
      "é¸": 950,
      "ä¸»é¢ĺ": 951,
      "å¼ķ": 952,
      "éĩĳ": 953,
      "è®¸": 954,
      "æļ": 955,
      "åħĪ": 956,
      "è¯Ħ": 957,
      "æ£": 958,
      "æ¸ħ": 959,
      "åĬŁ": 960,
      "ç´ł": 961,
      "å¤ĩ": 962,
      "è½»": 963,
      "æİ¥": 964,
      "è§ī": 965,
      "è¯»": 966,
      "æĪĺ": 967,
      "åĪĹ": 968,
      "èµĦ": 969,
      "ï¼Ī": 970,
      "åĪĨç±»": 971,
      "å§ĭ": 972,
      "èĮ": 973,
      "ä»Ĭ": 974,
      "çŁŃ": 975,
      "ä¸ªäºº": 976,
      "èĩ´": 977,
      "éĺ³": 978,
      "åĵª": 979,
      "åŃĺ": 980,
      "æĢģ": 981,
      "æķĻ": 982,
      "æµĭ": 983,
      "æ¸©": 984,
      "åĢĻ": 985,
      "æľĭ": 986,
      "ï¼ģ": 987,
      "æŀĲ": 988,
      "ç»Ń": 989,
      "ç¼ĸ": 990,
      "ä¸ĸçķĮ": 991,
      "ä½Ĩæĺ¯": 992,
      "åħ±": 993,
      "æľĭåıĭ": 994,
      "æľĪ": 995,
      "èıľ": 996,
      "åĲ«": 997,
      "åħĭ": 998,
      "çº¦": 999,
      "ç§¯": 1000,
      "çİĩ": 1001,
      "æĸĩåĮĸ": 1002,
      "ç«ĭ": 1003,
      "åĪĨæŀĲ": 1004,
      "ç»Ĩ": 1005,
      "å¤ĦçĲĨ": 1006,
      "åĽŀçŃĶ": 1007,
      "åı²": 1008,
      "çļĦæĥ": 1009,
      "ä¸Ģä¸ĭ": 1010,
      "æĶ¯": 1011,
      "åŁİå¸Ĥ": 1012,
      "åĩıå°ĳ": 1013,
      "å±±": 1014,
      "è±¡": 1015,
      "è¶³": 1016,
      "ä¹ĭä¸Ģ": 1017,
      "è¿Ļç¯ĩæĸĩç«ł": 1018,
      "ä¸ŃåĽ½": 1019,
      "å¤į": 1020,
      "æķ´": 1021,
      "åĲ¦": 1022,
      "ç¬¬": 1023,
      "åĨµ": 1024,
      "çłĶç©¶": 1025,
      "åĪĻ": 1026,
      "ä¿ĿæĬ¤": 1027,
      "ĺè¦ģ": 1028,
      "æ»¡": 1029,
      "è§Ĵ": 1030,
      "èĳ": 1031,
      "ç¥ŀ": 1032,
      "é¥®": 1033,
      "åħĥ": 1034,
      "20": 1035,
      "å·²ç»ı": 1036,
      "æİ¢": 1037,
      "æľĽ": 1038,
      "äºĨä¸Ģ": 1039,
      "åĥ": 1040,
      "è®¸å¤ļ": 1041,
      "ä¸¤ä¸ª": 1042,
      "ç³ĸ": 1043,
      "èĩªå·±çļĦ": 1044,
      "ç¿": 1045,
      "éĩĩ": 1046,
      "è°¢": 1047,
      "åıį": 1048,
      "èĢģ": 1049,
      "çº¿": 1050,
      "äº§åĵģ": 1051,
      "çĭĹ": 1052,
      "è¾ĵ": 1053,
      "çľŁ": 1054,
      "åĪĴ": 1055,
      "åĮ»çĸĹ": 1056,
      "æŃ¤å¤ĸ": 1057,
      "æĽ´å¤ļ": 1058,
      "è§Ħ": 1059,
      "åĶ": 1060,
      "è¶£": 1061,
      "éĢŁ": 1062,
      "ç³»ç»Ł": 1063,
      "å°½": 1064,
      "è·¯": 1065,
      "éĻ©": 1066,
      "çħ": 1067,
      "åıĤ": 1068,
      "çļĦäºº": 1069,
      "åĲĥ": 1070,
      "å¥³": 1071,
      "èģĶ": 1072,
      "ä¿ĿæĮģ": 1073,
      "ä»½": 1074,
      "æĺĵ": 1075,
      "è¥": 1076,
      "åħ¨çĲĥ": 1077,
      "æĸ¯": 1078,
      "æĬ¥": 1079,
      "çĽ´": 1080,
      "æĺ¯ä¸Ģç§į": 1081,
      "Â·": 1082,
      "åĬ¨çī©": 1083,
      "çĻ½": 1084,
      "æľįåĬ¡": 1085,
      "åĢ¼": 1086,
      "è¥¿": 1087,
      "å¤´": 1088,
      "è§£åĨ³": 1089,
      "æİĴ": 1090,
      "æĪĲä¸º": 1091,
      "åĨį": 1092,
      "ħäºĭ": 1093,
      "æĸ½": 1094,
      "ä»ĭ": 1095,
      "æ´»åĬ¨": 1096,
      "å²": 1097,
      "åĥı": 1098,
      "çİ¯ä¿Ŀ": 1099,
      "åĽ¾": 1100,
      "çĥŃ": 1101,
      "éļ¾": 1102,
      "ä¾¿": 1103,
      "ä¹°": 1104,
      "æĪĸèĢħ": 1105,
      "åĳ¨": 1106,
      "æŁ¥": 1107,
      "èĻĳ": 1108,
      "çļĦä¸Ģ": 1109,
      "10": 1110,
      "è¾ĥ": 1111,
      "èİ·": 1112,
      "è§ģ": 1113,
      "ç¤¾ä¼ļ": 1114,
      "æŀĦ": 1115,
      "æĿ¡": 1116,
      "çīĩ": 1117,
      "è¿ĲåĬ¨": 1118,
      "åĲ¬": 1119,
      "å®īåħ¨": 1120,
      "ç»ĻæĪĳ": 1121,
      "åıĳçİ°": 1122,
      "èº«ä½ĵ": 1123,
      "è¯Ĺ": 1124,
      "æ¼Ķ": 1125,
      "æĲ": 1126,
      "éħį": 1127,
      "çļĦæĥħ": 1128,
      "éļı": 1129,
      "èĩ³": 1130,
      "åıĺåĮĸ": 1131,
      "çİ°åľ¨": 1132,
      "ãĢĤâĢĿ": 1133,
      "æīĵ": 1134,
      "ç»ĥ": 1135,
      "ç§ĳæĬĢ": 1136,
      "åħ¶ä¸Ń": 1137,
      "åºı": 1138,
      "è®¤ä¸º": 1139,
      "å¤©æ°Ķ": 1140,
      "ç´¢": 1141,
      "çĬ¶": 1142,
      "æĶ¶": 1143,
      "è®°": 1144,
      "èĤ²": 1145,
      "éĤ£ä¹Ī": 1146,
      "å¼ł": 1147,
      "ä¸½": 1148,
      "æĪĳä»¬çļĦ": 1149,
      "åĳ½": 1150,
      "ä¹ĭéĹ´": 1151,
      "æĬĬ": 1152,
      "ç²¾": 1153,
      "æħ": 1154,
      "¹æŀľ": 1155,
      "äº«": 1156,
      "æ¶Ī": 1157,
      "çĽ¸åħ³": 1158,
      "åħħ": 1159,
      "ä½łçļĦ": 1160,
      "èĭ¹æŀľ": 1161,
      "äºĮ": 1162,
      "åİĨåı²": 1163,
      "èĥ½åĬĽ": 1164,
      "åĲ¸": 1165,
      "å¾Īå¤ļ": 1166,
      "æĶ¿": 1167,
      "çı": 1168,
      "åı¤": 1169,
      "å¸¦æĿ¥": 1170,
      "å¡": 1171,
      "æĳĺè¦ģ": 1172,
      "çŃĸ": 1173,
      "åĽŃ": 1174,
      "åħ´": 1175,
      "åħ·æľī": 1176,
      "æ¤": 1177,
      "è´Ń": 1178,
      "å¸Ī": 1179,
      "ç¢": 1180,
      "éĺŁ": 1181,
      "å¤±": 1182,
      "çĮ«": 1183,
      "ä½İ": 1184,
      "æ¬¾": 1185,
      "ç»Ļå®ļçļĦ": 1186,
      "éĹ¨": 1187,
      "ç»´": 1188,
      "åį³": 1189,
      "æ²»": 1190,
      "å¸ĥ": 1191,
      "éĹ»": 1192,
      "ç§°": 1193,
      "ç§ĳåŃ¦": 1194,
      "æ¢": 1195,
      "åħį": 1196,
      "æŃĮ": 1197,
      "éŁ³ä¹Ĳ": 1198,
      "è¯ī": 1199,
      "èįĲ": 1200,
      "äºĴ": 1201,
      "åĭ": 1202,
      "éĩĬ": 1203,
      "çĭ¬": 1204,
      "å°Ŀ": 1205,
      "ç»Ļåĩº": 1206,
      "æīį": 1207,
      "çļĦæĦ": 1208,
      "¦Ĥ": 1209,
      "çŃĶæ¡Ī": 1210,
      "æĿĲ": 1211,
      "è¿Ļç§į": 1212,
      "ç»į": 1213,
      "ä»»åĬ¡": 1214,
      "ç§¯æŀģ": 1215,
      "å¼Ģå§ĭ": 1216,
      "æĿ¾": 1217,
      "è®¾è®¡": 1218,
      "èĲ¥": 1219,
      "åı¥è¯Ŀ": 1220,
      "è¡¨è¾¾": 1221,
      "ä»ĭç»į": 1222,
      "äºĨè§£": 1223,
      "éĽĨ": 1224,
      "çļĦå½±åĵį": 1225,
      "ä¸ŃæıĲåıĸ": 1226,
      "å¯Į": 1227,
      "èĽ": 1228,
      "è¯¯": 1229,
      "å¯¹äºİ": 1230,
      "å¿ħ": 1231,
      "åħ·ä½ĵ": 1232,
      "å¯¼èĩ´": 1233,
      "æ¨¡åŀĭ": 1234,
      "åŃ£": 1235,
      "å¨": 1236,
      "è®¡ç®Ĺæľº": 1237,
      "çĶ·": 1238,
      "çĲĨè§£": 1239,
      "èĭ±": 1240,
      "æĥħæĦŁ": 1241,
      "æİ¨èįĲ": 1242,
      "æľºåĻ¨åŃ¦ä¹ł": 1243,
      "çļĦæĬ": 1244,
      "å®ŀçİ°": 1245,
      "è½¬": 1246,
      "æľĢè¿ĳ": 1247,
      "æĸ°çļĦ": 1248,
      "åı·": 1249,
      "è®¨": 1250,
      "æĺ¯åĲ¦": 1251,
      "éĢļå¸¸": 1252,
      "åİĭ": 1253,
      "åįĩ": 1254,
      "é¦Ļ": 1255,
      "åĬ¿": 1256,
      "è®²": 1257,
      "èµĽ": 1258,
      "ä»Ĭå¤©": 1259,
      "éĻ¤": 1260,
      "åĲĦç§į": 1261,
      "ä¸ĵ": 1262,
      "èĤī": 1263,
      "åĮĹ": 1264,
      "ä¸įæĸŃ": 1265,
      "ä¿®": 1266,
      "æĽ´å¥½": 1267,
      "æĿİ": 1268,
      "é²": 1269,
      "éĶĢ": 1270,
      "å¸Ĥåľº": 1271,
      "è´¹": 1272,
      "è®¡åĪĴ": 1273,
      "è£ħ": 1274,
      "åľ°çĲĥ": 1275,
      "æ°ĳ": 1276,
      "é»ĳ": 1277,
      "æĪı": 1278,
      "åħ³éĶ®è¯į": 1279,
      "åįİ": 1280,
      "åĳĬè¯ī": 1281,
      "åįģ": 1282,
      "è¯ģ": 1283,
      "æŁĵ": 1284,
      "é©¬": 1285,
      "çļĦéĹ®é¢ĺ": 1286,
      "æīĢæľī": 1287,
      "åħ»": 1288,
      "ä¸Ģæ®µ": 1289,
      "æīĢä»¥": 1290,
      "èħ": 1291,
      "æ³¨æĦı": 1292,
      "åĽ´": 1293,
      "åĸĦ": 1294,
      "èīº": 1295,
      "çĶ¨æĪ·": 1296,
      "ç»Ī": 1297,
      "æĪĳçļĦ": 1298,
      "è¯ĨåĪ«": 1299,
      "æĻļ": 1300,
      "å¯»": 1301,
      "å¸Į": 1302,
      "çª": 1303,
      "ä¸Ģèµ·": 1304,
      "æİ§": 1305,
      "æŃ£åľ¨": 1306,
      "ç¦»": 1307,
      "åįķè¯į": 1308,
      "æĪĳä»¬åı¯ä»¥": 1309,
      "èĳĹ": 1310,
      "å¤ı": 1311,
      "å¾ĭ": 1312,
      "éĢĤåĲĪ": 1313,
      "éĻħ": 1314,
      "æ¯Ķå¦Ĥ": 1315,
      "éĺ²": 1316,
      "AI": 1317,
      "æĸ°éĹ»": 1318,
      "ä»ĸçļĦ": 1319,
      "è¶ħ": 1320,
      "æĹłæ³ķ": 1321,
      "è¿ľ": 1322,
      "åĽĽ": 1323,
      "çŁ¥éģĵ": 1324,
      "å°Ķ": 1325,
      "å·§": 1326,
      "åŃ©": 1327,
      "çļĦæĺ¯": 1328,
      "æŀĹ": 1329,
      "è¦ģæ±Ĥ": 1330,
      "å¤ªéĺ³": 1331,
      "å¹¶ä¸Ķ": 1332,
      "æĦŁåĪ°": 1333,
      "ä¸Ģç§į": 1334,
      "æ³Ľ": 1335,
      "æĴ": 1336,
      "å£°": 1337,
      "åİħ": 1338,
      "èµ°": 1339,
      "åĳ¢": 1340,
      "ä»ħ": 1341,
      "ï¼ļâĢľ": 1342,
      "çĦ¶åĲİ": 1343,
      "è´Ł": 1344,
      "ç½®": 1345,
      "æŁĲ": 1346,
      "åı¦": 1347,
      "åħ³ç³»": 1348,
      "å£«": 1349,
      "æĹħæ¸¸": 1350,
      "å°ıè¯´": 1351,
      "åŃĺåľ¨": 1352,
      "æĢ»ç»ĵ": 1353,
      "èģĮ": 1354,
      "æ¯ıä¸ª": 1355,
      "åįĹ": 1356,
      "èĢĥèĻĳ": 1357,
      "å¤§çļĦ": 1358,
      "è¿ĩç¨ĭ": 1359,
      "æĭī": 1360,
      "è§£éĩĬ": 1361,
      "å¾·": 1362,
      "çļĦæĢ": 1363,
      "ç®¡çĲĨ": 1364,
      "è¾¹": 1365,
      "æĪĲåĬŁ": 1366,
      "èĽĭ": 1367,
      "æĪ¿": 1368,
      "éĻį": 1369,
      "æĺ¾": 1370,
      "è´¨éĩı": 1371,
      "çļĦæ°": 1372,
      "ĳæĪĺ": 1373,
      "åŃ¦çĶŁ": 1374,
      "æ®µèĲ½": 1375,
      "æĹ©": 1376,
      "çŃīçŃī": 1377,
      "ä¸ľ": 1378,
      "ç¾İåĽ½": 1379,
      "åĦ": 1380,
      "è¡Įä¸º": 1381,
      "éĶĻè¯¯": 1382,
      "æĪĳæĥ³": 1383,
      "ªæĸ½": 1384,
      "èŀ": 1385,
      "åĮ»çĶŁ": 1386,
      "ä¸Ģç¯ĩ": 1387,
      "å¢ŀåĬł": 1388,
      "å°Ŀè¯ķ": 1389,
      "å¯¹è¯Ŀ": 1390,
      "è¾ĳ": 1391,
      "ä¼¼": 1392,
      "çĨ": 1393,
      "çİ©": 1394,
      "äºĶ": 1395,
      "æ¦Ĥ": 1396,
      "å®ĮæĪĲ": 1397,
      "å¹¿æ³Ľ": 1398,
      "ä½ľä¸º": 1399,
      "å¯Ĩ": 1400,
      "çħ§": 1401,
      "æĺ¯ä»Ģä¹Ī": 1402,
      "åĪ©çĶ¨": 1403,
      "çĶ»": 1404,
      "ç±³": 1405,
      "ä¸ĭéĿ¢": 1406,
      "ä¸įåĲĮçļĦ": 1407,
      "è¿Ļæ®µ": 1408,
      "é¥®é£Ł": 1409,
      "æľĢåĲİ": 1410,
      "çģ«": 1411,
      "æĭ¥": 1412,
      "èĩªåĬ¨": 1413,
      "æļĸ": 1414,
      "åĴĸ": 1415,
      "éģ¿": 1416,
      "è®Ń": 1417,
      "å½ĵçĦ¶": 1418,
      "å¾ĹåĪ°": 1419,
      "é£Łçī©": 1420,
      "çİĭ": 1421,
      "æ¿": 1422,
      "çļĦåıĳå±ķ": 1423,
      "æĽ´å¥½åľ°": 1424,
      "åı¯èĥ½ä¼ļ": 1425,
      "åı°": 1426,
      "ç¡®ä¿Ŀ": 1427,
      "å®³": 1428,
      "åĽ¢": 1429,
      "çļĦæķ°": 1430,
      "çļĦåľ°": 1431,
      "åķ¡": 1432,
      "æµİ": 1433,
      "çļĦä¿¡æģ¯": 1434,
      "ãĢĤ\\": 1435,
      "å¿µ": 1436,
      "äºļ": 1437,
      "äº¬": 1438,
      "ä»»ä½ķ": 1439,
      "æĤ¨çļĦ": 1440,
      "æ°ĶåĢĻ": 1441,
      "åĴĸåķ¡": 1442,
      "ä¼ģ": 1443,
      "çļĦåºĶçĶ¨": 1444,
      "ç®Ĺæ³ķ": 1445,
      "æłĩé¢ĺ": 1446,
      "ä¸įæĺ¯": 1447,
      "æĥħåĨµ": 1448,
      "å®¤": 1449,
      "éĻĲ": 1450,
      "äº§çĶŁ": 1451,
      "å¸ĮæľĽ": 1452,
      "éĽ¨": 1453,
      "èŀį": 1454,
      "æķħäºĭ": 1455,
      "èįī": 1456,
      "æ´ģ": 1457,
      "æĵ": 1458,
      "äº¤éĢļ": 1459,
      "è¿ĺæľī": 1460,
      "äººçļĦ": 1461,
      "èİ·å¾Ĺ": 1462,
      "æį¢": 1463,
      "ç»ľ": 1464,
      "åł": 1465,
      "æĢİ": 1466,
      "å·´": 1467,
      "è¾ĵåħ¥": 1468,
      "çĽ®æłĩ": 1469,
      "åĦ¿": 1470,
      "è¿Ļæł·": 1471,
      "çĶŁæĪĲä¸Ģä¸ª": 1472,
      "å¹²": 1473,
      "ç»ıæµİ": 1474,
      "éħĴ": 1475,
      "é¦ĸåħĪ": 1476,
      "é»Ħ": 1477,
      "è¡¨ç¤º": 1478,
      "é¤Ĳåİħ": 1479,
      "çĶ¨äºİ": 1480,
      "è¡£": 1481,
      "åı¯ä»¥å¸®åĬ©": 1482,
      "ç³ĸæŀľ": 1483,
      "é£ŀ": 1484,
      "å¾ģ": 1485,
      "éĥ½æĺ¯": 1486,
      "ä½łåı¯ä»¥": 1487,
      "æľīæķĪ": 1488,
      "çīĽ": 1489,
      "ä¼Ĺ": 1490,
      "åºĹ": 1491,
      "çļĦä¸»è¦ģ": 1492,
      "éĺħ": 1493,
      "å¾Ģ": 1494,
      "ç©¿": 1495,
      "åĮħåĲ«": 1496,
      "çļĦæł": 1497,
      "æī¾åĪ°": 1498,
      "æĹħè¡Į": 1499,
      "æķĻèĤ²": 1500,
      "ç»ĵæŀľ": 1501,
      "å±ŀ": 1502,
      "åºŃ": 1503,
      "ç®Ģåįķ": 1504,
      "æ¸¸æĪı": 1505,
      "éº": 1506,
      "çļĦéĩįè¦ģ": 1507,
      "éľĢæ±Ĥ": 1508,
      "¡æŁĵ": 1509,
      "ä½¿åħ¶": 1510,
      "åĳĬè¯īæĪĳ": 1511,
      "è§ĤçĤ¹": 1512,
      "æ¿Ģ": 1513,
      "éĥ¨åĪĨ": 1514,
      "éģ¿åħį": 1515,
      "åĿĩ": 1516,
      "å±ħ": 1517,
      "éĩĩåıĸ": 1518,
      "æ½": 1519,
      "çīĮ": 1520,
      "åĪ¶ä½ľ": 1521,
      "ç½ĳç»ľ": 1522,
      "æİªæĸ½": 1523,
      "ä»¤": 1524,
      "åĩłä¸ª": 1525,
      "å¾®": 1526,
      "æ©": 1527,
      "åĩĨç¡®": 1528,
      "ä¹Łæĺ¯": 1529,
      "æĶ¯æĮģ": 1530,
      "äºī": 1531,
      "æľīåħ³": 1532,
      "ä¸ĩ": 1533,
      "ä½ĵéªĮ": 1534,
      "åª": 1535,
      "è¡¨çİ°": 1536,
      "é±": 1537,
      "èµ·æĿ¥": 1538,
      "èĥ½æºĲ": 1539,
      "æĮģç»Ń": 1540,
      "åī§": 1541,
      "äºĨä¸Ģä¸ª": 1542,
      "éĩįè¦ģçļĦ": 1543,
      "é±¼": 1544,
      "æłĳ": 1545,
      "ä½ľçĶ¨": 1546,
      "ç«Ļ": 1547,
      "ç»¿": 1548,
      "ä¸įèĥ½": 1549,
      "ä¹Łåı¯ä»¥": 1550,
      "ä¼ģä¸ļ": 1551,
      "åıĳçĶŁ": 1552,
      "èĵ": 1553,
      "çĳ": 1554,
      "èĩªçĦ¶è¯Ńè¨Ģ": 1555,
      "çĽĬ": 1556,
      "ä»ĸä»¬çļĦ": 1557,
      "èī¯": 1558,
      "åĪĩ": 1559,
      "çĶ±äºİ": 1560,
      "00": 1561,
      "å°ıçº¢": 1562,
      "¾çĹħ": 1563,
      "é¼": 1564,
      "ä¸īä¸ª": 1565,
      "éĺħè¯»": 1566,
      "é¾": 1567,
      "çİ°ä»£": 1568,
      "ç¬¦": 1569,
      "æ¤į": 1570,
      "åĵªäºĽ": 1571,
      "å¤ľ": 1572,
      "åĪ¤": 1573,
      "å¥¶": 1574,
      "ç¤¾äº¤": 1575,
      "æĭ¥æľī": 1576,
      "å¾ħ": 1577,
      "âĢĿï¼Į": 1578,
      "åŁºäºİ": 1579,
      "å¥ĩ": 1580,
      "å®Ŀ": 1581,
      "åħ³æ³¨": 1582,
      "çº§": 1583,
      "æ²¹": 1584,
      "åĬłåħ¥": 1585,
      "å¦Ĥæŀľä½ł": 1586,
      "ç»ĩ": 1587,
      "è¿ĺæĺ¯": 1588,
      "é¢ľ": 1589,
      "èī²çļĦ": 1590,
      "è¯Ĭ": 1591,
      "æ±¡æŁĵ": 1592,
      "æ¹": 1593,
      "éģĩ": 1594,
      "ä¸¾": 1595,
      "åĬª": 1596,
      "åĿĹ": 1597,
      "åıĪ": 1598,
      "åºľ": 1599,
      "ä»¥ä¸ĭåı¥åŃĲ": 1600,
      "ï¼Ł</": 1601,
      "ç±»åŀĭ": 1602,
      "è¿ŀ": 1603,
      "çļĦæĸĩç«ł": 1604,
      "ä¸°": 1605,
      "ç¡®å®ļ": 1606,
      "é¦Ĩ": 1607,
      "é¸¡": 1608,
      "åĩºçİ°": 1609,
      "å®¶åºŃ": 1610,
      "æĮĳæĪĺ": 1611,
      "åĬªåĬĽ": 1612,
      "èµĦæºĲ": 1613,
      "åĪ»": 1614,
      "è®Ńç»ĥ": 1615,
      "çļĦæİ": 1616,
      "ç¿»": 1617,
      "åĶ®": 1618,
      "æķ£": 1619,
      "æĺ¥": 1620,
      "è¿½": 1621,
      "èĪĴ": 1622,
      "èĻ½": 1623,
      "æİ§åĪ¶": 1624,
      "æĢ§åĴĮ": 1625,
      "èĦĳ": 1626,
      "å®¢æĪ·": 1627,
      "åĬŁèĥ½": 1628,
      "è½¯": 1629,
      "æŃ£ç¡®": 1630,
      "æľīè¶£": 1631,
      "èį¯": 1632,
      "è¿Ļæĺ¯": 1633,
      "åıĹåĪ°": 1634,
      "æĸ¹æ¡Ī": 1635,
      "éĿĻ": 1636,
      "çļĦåı¥åŃĲ": 1637,
      "ç§ĭ": 1638,
      "é¸Ł": 1639,
      "çļĦæĬĢ": 1640,
      "ä»İèĢĮ": 1641,
      "ä¸ºäºĨ": 1642,
      "æ£Ģ": 1643,
      "éŃ": 1644,
      "ä¸¥": 1645,
      "çļĦæĻ": 1646,
      "è§Ĵèī²": 1647,
      "æĤ¨åı¯ä»¥": 1648,
      "èŃ": 1649,
      "æĬķ": 1650,
      "èīºæľ¯": 1651,
      "é¢Ħæµĭ": 1652,
      "çĸ¾çĹħ": 1653,
      "å±Ĥ": 1654,
      "åħ¸": 1655,
      "æ²Ļ": 1656,
      "åİĭåĬĽ": 1657,
      "æ²»çĸĹ": 1658,
      "çļĦç¾": 1659,
      "ç¨ĭåºı": 1660,
      "æ¯Ķè¾ĥ": 1661,
      "æİ¢ç´¢": 1662,
      "å½Ĵ": 1663,
      "æķĪçİĩ": 1664,
      "èĮĥ": 1665,
      "è¯¦": 1666,
      "äºĭä»¶": 1667,
      "äºĳ": 1668,
      "æĿ¯": 1669,
      "ä¸ĬçļĦ": 1670,
      "æĤ£": 1671,
      "äººå·¥æĻºèĥ½æĬĢæľ¯": 1672,
      "åģĩ": 1673,
      "ä¼łç»Ł": 1674,
      "èĶ": 1675,
      "æĿĤ": 1676,
      "è´Ńä¹°": 1677,
      "æľĢç»Ī": 1678,
      "çļĦæĦı": 1679,
      "çĶµåŃĲ": 1680,
      "èĻ½çĦ¶": 1681,
      "ä¸įä»ħ": 1682,
      "éĨ": 1683,
      "çŁ³": 1684,
      "éĻ¢": 1685,
      "çĶŁçī©": 1686,
      "æĿ¥è¶Ĭ": 1687,
      "é²ľ": 1688,
      "æ°ĶåĢĻåıĺåĮĸ": 1689,
      "è¶ĬæĿ¥è¶Ĭ": 1690,
      "æīįèĥ½": 1691,
      "ç¦ı": 1692,
      "æĮī": 1693,
      "çĶŁåĳ½": 1694,
      "æµª": 1695,
      "æĪĳä»¬éľĢè¦ģ": 1696,
      "éļıçĿĢ": 1697,
      "é£İéĻ©": 1698,
      "æ¥": 1699,
      "å°±æĺ¯": 1700,
      "ä¸Ģä»½": 1701,
      "æĽ²": 1702,
      "æ´ĭ": 1703,
      "ä¸´": 1704,
      "çĥ¤": 1705,
      "åĽ°": 1706,
      "çķ¥": 1707,
      "åį¡": 1708,
      "åªĴ": 1709,
      "æ±½": 1710,
      "åĨ°": 1711,
      "ä¸Ģä½į": 1712,
      "èĥĮ": 1713,
      "ç¼º": 1714,
      "æĿ¥è¯´": 1715,
      "è·ĳ": 1716,
      "çĵ": 1717,
      "å»ºç«ĭ": 1718,
      "æĢİä¹Ī": 1719,
      "å½©": 1720,
      "è¯Ħè®º": 1721,
      "ç¼ĸè¾ĳ": 1722,
      "æĿĥ": 1723,
      "ä¸°å¯Į": 1724,
      "èĵĿ": 1725,
      "èĩªçĦ¶è¯Ńè¨Ģå¤ĦçĲĨ": 1726,
      "æĻ®": 1727,
      "æĶ¿åºľ": 1728,
      "åı¶": 1729,
      "åİŁåĽł": 1730,
      "åĪĽéĢł": 1731,
      "åĿļ": 1732,
      "è¯¦ç»Ĩ": 1733,
      "æł¡": 1734,
      "ä»·åĢ¼": 1735,
      "è¡¨æĺİ": 1736,
      "ä½ľèĢħ": 1737,
      "åĽłç´ł": 1738,
      "è¯Ńæ³ķ": 1739,
      "çļĦç¾İ": 1740,
      "åĳ¼": 1741,
      "èľ": 1742,
      "çĶŁæĢģ": 1743,
      "æĽ´å¤ļçļĦ": 1744,
      "çļĦæī": 1745,
      "æĸĩæ¡Ī": 1746,
      "å¤ļå°ĳ": 1747,
      "æ¯ĶèµĽ": 1748,
      "æĹ¶åĢĻ": 1749,
      "åħ¬åĽŃ": 1750,
      "æĶ¹åıĺ": 1751,
      "æ°´æŀľ": 1752,
      "åĩĨå¤ĩ": 1753,
      "ä¹ĭéĹ´çļĦ": 1754,
      "ç»Ħç»ĩ": 1755,
      "æĹı": 1756,
      "è¯ĬæĸŃ": 1757,
      "ä»¥ä¸ĭæĸĩæľ¬": 1758,
      "ç¬Ķ": 1759,
      "æľºä¼ļ": 1760,
      "åĬŀ": 1761,
      "äº²": 1762,
      "é¢ĺçĽ®": 1763,
      "èĴ": 1764,
      "è¿ĺåı¯ä»¥": 1765,
      "è¯·éĹ®": 1766,
      "é¢Ĺ": 1767,
      "ä½ı": 1768,
      "çļĦæĥħæĦŁ": 1769,
      "å³": 1770,
      "çªģ": 1771,
      "æĿĲæĸĻ": 1772,
      "çĽĳ": 1773,
      "ä¿ĥ": 1774,
      "å°¼": 1775,
      "è¿İ": 1776,
      "åĲįç§°": 1777,
      "çļĦæĸ¹æ³ķ": 1778,
      "çĶŁäº§": 1779,
      "çĻ¾": 1780,
      "å½ĵåľ°": 1781,
      "é£İæł¼": 1782,
      "éĴŁ": 1783,
      "é£Łåĵģ": 1784,
      "ç¼ĵ": 1785,
      "ç»ĵæŀĦ": 1786,
      "å¹´è½»": 1787,
      "çłģ": 1788,
      "ç»ıéªĮ": 1789,
      "åľ¨è¿Ļä¸ª": 1790,
      "åıĺå¾Ĺ": 1791,
      "çĸ«": 1792,
      "æ³¢": 1793,
      "çī¹å¾ģ": 1794,
      "çķĻ": 1795,
      "åķĨåĵģ": 1796,
      "å¼Ĥ": 1797,
      "å¤§éĩı": 1798,
      "å¯»æī¾": 1799,
      "äº®": 1800,
      "å®ĥçļĦ": 1801,
      "è¡Įä¸ļ": 1802,
      "å¦ĤæŀľæĤ¨": 1803,
      "é¢ľèī²": 1804,
      "çĤ¼": 1805,
      "åªĴä½ĵ": 1806,
      "äº«åıĹ": 1807,
      "æĭŁ": 1808,
      "è®¨è®º": 1809,
      "çļĦæµ": 1810,
      "çļĦæĸĩæľ¬": 1811,
      "ç½Ĺ": 1812,
      "åĤ": 1813,
      "è¡¡": 1814,
      "éĿĴ": 1815,
      "è¡ĮåĬ¨": 1816,
      "åĲ§": 1817,
      "å¿ĥçĲĨ": 1818,
      "æľ¨": 1819,
      "æ´²": 1820,
      "è´£": 1821,
      "è´ŁéĿ¢": 1822,
      "é¡»": 1823,
      "çļ®": 1824,
      "è¯ĳ": 1825,
      "å¼Ģåıĳ": 1826,
      "åħħæ»¡": 1827,
      "å¨ģ": 1828,
      "âĢĿãĢĤ": 1829,
      "åıĤåĬł": 1830,
      "æ¯ıä¸ªäºº": 1831,
      "ä»·æł¼": 1832,
      "ĥåľ": 1833,
      "ä¸ºä»Ģä¹Ī": 1834,
      "ä¸Ģå®ļ": 1835,
      "åŀĥåľ": 1836,
      "åŀĥåľ¾": 1837,
      "èĳĹåĲį": 1838,
      "ãĢĤ\"": 1839,
      "åħ´è¶£": 1840,
      "æ¯ıå¤©": 1841,
      "ä¸Ńå¿ĥ": 1842,
      "ä¼¤": 1843,
      "éĥ¨çĶµå½±": 1844,
      "ä½ľåĵģ": 1845,
      "çŁ¥è¯Ĩ": 1846,
      "ç¾¤": 1847,
      "ĊĊ": 1848,
      "æ»©": 1849,
      "å·¥åħ·": 1850,
      "è®¾å¤ĩ": 1851,
      "åĮĹäº¬": 1852,
      "åĩºäºĨ": 1853,
      "æ±½è½¦": 1854,
      "åľºæĻ¯": 1855,
      "ä¸ĢæŃ¥": 1856,
      "ç´§": 1857,
      "åĵģçīĮ": 1858,
      "ä¸ĵä¸ļ": 1859,
      "æ¯į": 1860,
      "éĤ®": 1861,
      "æĶ¹åĸĦ": 1862,
      "è¿Ļåı¥è¯Ŀ": 1863,
      "èĶ¬": 1864,
      "æł¹æį®ç»Ļå®ļçļĦ": 1865,
      "ä»į": 1866,
      "è®²è¿°": 1867,
      "è¿Ļä¸ªéĹ®é¢ĺ": 1868,
      "ç¾İä¸½": 1869,
      "çļĦæ¸": 1870,
      "åľŁ": 1871,
      "æĪĳä¼ļ": 1872,
      "çļĦæķħäºĭ": 1873,
      "çľł": 1874,
      "çļĦæŃ": 1875,
      "æĽ¿": 1876,
      "åĪĽæĸ°": 1877,
      "å¸®æĪĳ": 1878,
      "ç§ĺ": 1879,
      "çļĦæĶ": 1880,
      "éĺ¿": 1881,
      "çļĦçĶµå½±": 1882,
      "ä¸ĢçĽ´": 1883,
      "èĪĴéĢĤ": 1884,
      "éĩİ": 1885,
      "åº§": 1886,
      "æ·±åº¦": 1887,
      "æħ¢": 1888,
      "æĶ¾æĿ¾": 1889,
      "æ¼«": 1890,
      "è¯¢": 1891,
      "åĩ»": 1892,
      "éĢĲ": 1893,
      "è§īå¾Ĺ": 1894,
      "æīĭæľº": 1895,
      "è¶ĭ": 1896,
      "ä¼ĳ": 1897,
      "éĢłæĪĲ": 1898,
      "çŃĳ": 1899,
      "é¡¹çĽ®": 1900,
      "çģµ": 1901,
      "åŃ©åŃĲ": 1902,
      "çĩ": 1903,
      "19": 1904,
      "åĨ³å®ļ": 1905,
      "å·ŀ": 1906,
      "éĩįæĸ°": 1907,
      "å½ķ": 1908,
      "èģĬ": 1909,
      "äºĭæĥħ": 1910,
      "å·¨": 1911,
      "çł´": 1912,
      "éĩĳèŀį": 1913,
      "åĲ¸å¼ķ": 1914,
      "èĥľ": 1915,
      "åĪ¤æĸŃ": 1916,
      "ä»¥ä¸ĭæĺ¯": 1917,
      "èĢĮä¸Ķ": 1918,
      "éĢģ": 1919,
      "çĿ¡": 1920,
      "åį°": 1921,
      "çļĦçŁ": 1922,
      "æķ°åŃĹ": 1923,
      "ä¸ŃæıĲåıĸåĩº": 1924,
      "èĶ¬èıľ": 1925,
      "çĹĩ": 1926,
      "å·®": 1927,
      "åĨĽ": 1928,
      "åįı": 1929,
      "çľĭåĪ°": 1930,
      "æ¤įçī©": 1931,
      "ä¸Ģæ¬¡": 1932,
      "èŃ¦": 1933,
      "éļĲ": 1934,
      "ç¿»è¯ĳ": 1935,
      "æĢ§çļĦ": 1936,
      "æŃ¢": 1937,
      "åī©": 1938,
      "æĪĳåı¯ä»¥": 1939,
      "é©¶": 1940,
      "éĶ»": 1941,
      "åı¦å¤ĸ": 1942,
      "æ¸Ĳ": 1943,
      "å°Ĭ": 1944,
      "å»ºçŃĳ": 1945,
      "éĶ»çĤ¼": 1946,
      "ä½³": 1947,
      "éĩĩçĶ¨": 1948,
      "éĶĢåĶ®": 1949,
      "æľīä»Ģä¹Ī": 1950,
      "æ²³": 1951,
      "è¶ĭåĬ¿": 1952,
      "æĩ": 1953,
      "çºª": 1954,
      "çľ¼": 1955,
      "ç®Ģæ´ģ": 1956,
      "å¿ħé¡»": 1957,
      "æĸĩç«łä¸Ń": 1958,
      "æ¢¦": 1959,
      "å°Ĩåħ¶": 1960,
      "æ°§": 1961,
      "åı¯æĮģç»Ń": 1962,
      "æĺ¨": 1963,
      "èª": 1964,
      "ä¸įä¼ļ": 1965,
      "é¢ĳ": 1966,
      "åĽ¢éĺŁ": 1967,
      "æĿ¿": 1968,
      "ä»¥ä¸Ĭ": 1969,
      "ç»ª": 1970,
      "é©¾": 1971,
      "éĴ±": 1972,
      "å¤įæĿĤ": 1973,
      "åĪ¶å®ļ": 1974,
      "åĬ©äºİ": 1975,
      "åį«": 1976,
      "åĪĿ": 1977,
      "ç§ģ": 1978,
      "çļĦçł": 1979,
      "åľ°åĮº": 1980,
      "åĵĪ": 1981,
      "å¿«éĢŁ": 1982,
      "çī¹çĤ¹": 1983,
      "åĬ±": 1984,
      "æ¶ī": 1985,
      "ä»£è¡¨": 1986,
      "çī¹åĪ«": 1987,
      "èĩªçĶ±": 1988,
      "Ġ\"": 1989,
      "æĺ¯åľ¨": 1990,
      "çĦ¶èĢĮ": 1991,
      "éĥ½æľī": 1992,
      "è¿Ļæ®µæĸĩæľ¬": 1993,
      "å±ŀäºİ": 1994,
      "ä¸Ģåıª": 1995,
      "çĸĳ": 1996,
      "å®ŀä½ĵ": 1997,
      "è´¢": 1998,
      "æķ°åŃ¦": 1999,
      "åĨľ": 2000,
      "æĥ³è¦ģ": 2001,
      "æĥ¯": 2002,
      "èģĮä¸ļ": 2003,
      "çļĦæĳ": 2004,
      "çļĦæ²": 2005,
      "è¯Ħä»·": 2006,
      "ä¸ºæĤ¨": 2007,
      "å¿Ĺ": 2008,
      "æĸĩåŃĹ": 2009,
      "å¾Īå¥½": 2010,
      "å²ģ": 2011,
      "ä¼¦": 2012,
      "æĳĦ": 2013,
      "çĽ®åīį": 2014,
      "ä¾Ŀ": 2015,
      "éĤ®ä»¶": 2016,
      "ç»ıåİĨ": 2017,
      "éĴĪ": 2018,
      "å°ļ": 2019,
      "èĹ": 2020,
      "æ·»": 2021,
      "æĲŃ": 2022,
      "åºķ": 2023,
      "åĨ·": 2024,
      "æĬ¥éģĵ": 2025,
      "åĲĪä½ľ": 2026,
      "è¡Ģ": 2027,
      "åı¯ä»¥éĢļè¿ĩ": 2028,
      "å°½ç®¡": 2029,
      "çļĦçĶŁæ´»": 2030,
      "éĺ³åħī": 2031,
      "éĻįä½İ": 2032,
      "åħ¬åı¸çļĦ": 2033,
      "å©": 2034,
      "ä¸įè¦ģ": 2035,
      "äººå·¥æĻºèĥ½åľ¨": 2036,
      "æķ°éĩı": 2037,
      "çļĦæĮ": 2038,
      "çī©è´¨": 2039,
      "çīĪ": 2040,
      "åĬłå¼º": 2041,
      "åįļ": 2042,
      "ç¼ĸåĨĻ": 2043,
      "ä½łèĥ½": 2044,
      "æĥĬ": 2045,
      "çĽĸ": 2046,
      "ç²ī": 2047,
      "åħ±åĲĮ": 2048,
      "ç»§": 2049,
      "æĺ¯æĮĩ": 2050,
      "ç®ĢçŁŃ": 2051,
      "ç¾İé£Ł": 2052,
      "ä¿ĥè¿Ľ": 2053,
      "å¼ºè°ĥ": 2054,
      "è®©æĪĳ": 2055,
      "æ±ĩ": 2056,
      "çļĦæĦŁ": 2057,
      "çļĦå»ºè®®": 2058,
      "æľīåĬ©äºİ": 2059,
      "è°¢è°¢": 2060,
      "è¿ĻéĩĮ": 2061,
      "èĻļ": 2062,
      "å¹¸": 2063,
      "èģĶç½ĳ": 2064,
      "åŁºç¡": 2065,
      "ä¸ĬæľĢ": 2066,
      "éĩįåĨĻ": 2067,
      "åĪļ": 2068,
      "ä¹łæĥ¯": 2069,
      "çļĦæ¯": 2070,
      "åŁºç¡Ģ": 2071,
      "å°Ħ": 2072,
      "è¿Ļéĥ¨çĶµå½±": 2073,
      "ä½¿å¾Ĺ": 2074,
      "æľīäºĽ": 2075,
      "æľīå¾Īå¤ļ": 2076,
      "åıĮ": 2077,
      "æĹ¨": 2078,
      "æķ´ä¸ª": 2079,
      "éĵģ": 2080,
      "ç§»": 2081,
      "ä¸ĢåĲį": 2082,
      "ç¤¼": 2083,
      "åį´": 2084,
      "å½¢å¼ı": 2085,
      "èĪŀ": 2086,
      "å¡ĳ": 2087,
      "åĬĽåĴĮ": 2088,
      "æĬĢèĥ½": 2089,
      "åĮ»åŃ¦": 2090,
      "åĨ³çŃĸ": 2091,
      "ä¸įéĶĻ": 2092,
      "å±Ģ": 2093,
      "âĢĶ": 2094,
      "æľ¬æĸĩ": 2095,
      "å®ĩ": 2096,
      "çļĦæķ°æį®": 2097,
      "äº¤æµģ": 2098,
      "èĮ¶": 2099,
      "åį±": 2100,
      "åįĪ": 2101,
      "è¿Ļæĺ¯ä¸Ģ": 2102,
      "æĤ£èĢħ": 2103,
      "çī¹å®ļ": 2104,
      "æĬĢå·§": 2105,
      "æľºåĻ¨äºº": 2106,
      "ç¥¨": 2107,
      "åŁºæľ¬": 2108,
      "èģĶç³»": 2109,
      "çļĦæı": 2110,
      "çļĦç¤": 2111,
      "å¹»": 2112,
      "Ġ-": 2113,
      "è¯´æĺİ": 2114,
      "åı«": 2115,
      "çŃīæĸ¹éĿ¢": 2116,
      "ä»¤äºº": 2117,
      "æİ¢è®¨": 2118,
      "å¯Ł": 2119,
      "å¢ŀå¼º": 2120,
      "é¥Ń": 2121,
      "ç¹": 2122,
      "åĸĿ": 2123,
      "æ¯Ĵ": 2124,
      "ä½įç½®": 2125,
      "æĭħ": 2126,
      "åĪĨéĴŁ": 2127,
      "æıĲåĪ°": 2128,
      "ä¸ªèĭ¹æŀľ": 2129,
      "è¿ĩç¨ĭä¸Ń": 2130,
      "åķĬ": 2131,
      "è®©äºº": 2132,
      "è±Ĩ": 2133,
      "åįĥ": 2134,
      "èĸ": 2135,
      "ç«¯": 2136,
      "çĭ¬çī¹": 2137,
      "å®£": 2138,
      "æĢĿèĢĥ": 2139,
      "æĬ½": 2140,
      "æ¬¢è¿İ": 2141,
      "å¥¥": 2142,
      "æĸĩæľ¬ä¸Ń": 2143,
      "ä»¥ä¾¿": 2144,
      "èĢģå¸Ī": 2145,
      "çº³": 2146,
      "ç¬¬äºĮ": 2147,
      "èķ": 2148,
      "æ¯Ľ": 2149,
      "ä»ĺ": 2150,
      "è¯ŃéŁ³": 2151,
      "ç«ŀ": 2152,
      "åĿĲ": 2153,
      "å³°": 2154,
      "éŀ": 2155,
      "éĢŁåº¦": 2156,
      "éĢı": 2157,
      "æ©Ļ": 2158,
      "æĸĩåŃ¦": 2159,
      "åıªæľī": 2160,
      "è¡ĮæĺŁ": 2161,
      "æĦŁè§ī": 2162,
      "è¾ĵåĩº": 2163,
      "å®¹æĺĵ": 2164,
      "èģļ": 2165,
      "ç»Ŀ": 2166,
      "é¡º": 2167,
      "è·Ł": 2168,
      "è¿Ľä¸ĢæŃ¥": 2169,
      "æŃ£éĿ¢": 2170,
      "æĦ¿": 2171,
      "æĦŁè°¢": 2172,
      "ä¹ħ": 2173,
      "å½¢æĪĲ": 2174,
      "ç¬ĳ": 2175,
      "çļĦçľ": 2176,
      "è¯¾": 2177,
      "æī§": 2178,
      "ä½Ļ": 2179,
      "çĦ¦": 2180,
      "ç¤¾äº¤åªĴä½ĵ": 2181,
      "çĮ®": 2182,
      "é©¾é©¶": 2183,
      "å®ŀéĻħ": 2184,
      "çıŃ": 2185,
      "ç»ĦæĪĲ": 2186,
      "èĪª": 2187,
      "è¿Ļæĺ¯ä¸Ģä¸ª": 2188,
      "çļĦæ°´": 2189,
      "çģ¾": 2190,
      "æ¶īåıĬ": 2191,
      "é¹": 2192,
      "èĪ¬": 2193,
      "æ¦Ĥæĭ¬": 2194,
      "æ·±åº¦åŃ¦ä¹ł": 2195,
      "åįĬ": 2196,
      "åŃ¦æł¡": 2197,
      "åĪĽæĦı": 2198,
      "è¿Ļä¸Ģ": 2199,
      "åģ¥èº«": 2200,
      "åĲįè¯į": 2201,
      "çĥĪ": 2202,
      "åģļåĩº": 2203,
      "ç»ĥä¹ł": 2204,
      "æĿ¡ä»¶": 2205,
      "å¤§åĪ©": 2206,
      "çļĦæĬĢæľ¯": 2207,
      "çļĦæĹ¶éĹ´": 2208,
      "çļĦä¸»é¢ĺ": 2209,
      "ç¼ĸç¨ĭ": 2210,
      "åĲįåŃĹ": 2211,
      "åıĺæļĸ": 2212,
      "äººåĳĺ": 2213,
      "æĦıè¯Ĩ": 2214,
      "èĲ¥åħ»": 2215,
      "ä¸įåı¯": 2216,
      "æıĲä¾ĽäºĨ": 2217,
      "æĸ¹åĲĳ": 2218,
      "é¾Ļ": 2219,
      "ç»§ç»Ń": 2220,
      "åı¯ä»¥åľ¨": 2221,
      "ç»ıå¸¸": 2222,
      "é¼ĵ": 2223,
      "çİĽ": 2224,
      "éĵ¾": 2225,
      "æķħ": 2226,
      "éĢĤå½ĵ": 2227,
      "æĦıä¹ī": 2228,
      "èĩªæĪĳ": 2229,
      "å¤ļä¸ª": 2230,
      "æĭ¿": 2231,
      "éĵ¶": 2232,
      "åĨ¬": 2233,
      "åĳĺå·¥": 2234,
      "é¢Ŀ": 2235,
      "èĮĥåĽ´": 2236,
      "ä»İæĸĩç«ł": 2237,
      "è´Ńçī©": 2238,
      "èĥĮæĻ¯": 2239,
      "é«ĺçļĦ": 2240,
      "æ°´å¹³": 2241,
      "ä¼´": 2242,
      "çļĦå¤©æ°Ķ": 2243,
      "å¤ļç§į": 2244,
      "åħ°": 2245,
      "åĽ¾åĥı": 2246,
      "å¸¸è§ģ": 2247,
      "è¯ĹæŃĮ": 2248,
      "ä¸¥éĩį": 2249,
      "çī©åĵģ": 2250,
      "çŁŃè¯Ń": 2251,
      "å®ĺ": 2252,
      "åĳ¼åĲ¸": 2253,
      "å®ł": 2254,
      "éŀĭ": 2255,
      "è¿·": 2256,
      "åºĶå¯¹": 2257,
      "èĲ¨": 2258,
      "å¯¹è¯ĿåĨħå®¹": 2259,
      "å¦Ĥä¸ĭ": 2260,
      "çļĦå°ı": 2261,
      "åĲĮæĹ¶ä¹Ł": 2262,
      "æ¸ħæĻ": 2263,
      "æľ«": 2264,
      "æ»¡è¶³": 2265,
      "æ´ŀ": 2266,
      "é¡¾": 2267,
      "æĮīçħ§": 2268,
      "æľ¬ä¹¦": 2269,
      "ç¢³": 2270,
      "è½¯ä»¶": 2271,
      "åİ»äºĨ": 2272,
      "ä¸ĭæĿ¥": 2273,
      "æĬ±": 2274,
      "ä¼ļè®®": 2275,
      "å¹³è¡¡": 2276,
      "åĢĭ": 2277,
      "éĽª": 2278,
      "å¤ıå¤©": 2279,
      "éª¤": 2280,
      "æĲľ": 2281,
      "æıĲåĪ°äºĨ": 2282,
      "ç±»åĪ«": 2283,
      "ä¼°": 2284,
      "çºł": 2285,
      "æ£ĢæŁ¥": 2286,
      "æĽ¾": 2287,
      "èµı": 2288,
      "çļĦçĪ": 2289,
      "ç»ıåħ¸": 2290,
      "è¯·ä½ł": 2291,
      "ç¹ģ": 2292,
      "åĭĩ": 2293,
      "åģı": 2294,
      "ç©ºæ°Ķ": 2295,
      "è¯»èĢħ": 2296,
      "è¸": 2297,
      "äºĭå®ŀ": 2298,
      "çĨŁ": 2299,
      "æ´Ĺ": 2300,
      "15": 2301,
      "å¼ķèµ·": 2302,
      "éŃĶ": 2303,
      "åıĤä¸İ": 2304,
      "çļĦåħ³éĶ®": 2305,
      "åĿı": 2306,
      "Ġåľ¨": 2307,
      "çļĦæłĩ": 2308,
      "æľĹ": 2309,
      "åħĥç´ł": 2310,
      "è°Ī": 2311,
      "åķĨä¸ļ": 2312,
      "å½ĵçĦ¶åı¯ä»¥": 2313,
      "çĶµè§Ĩ": 2314,
      "æĽ´å¥½çļĦ": 2315,
      "åŃ¤": 2316,
      "åĩºæĿ¥": 2317,
      "çļĦçłĶç©¶": 2318,
      "ä½įäºİ": 2319,
      "çľģ": 2320,
      "éĿ¢ä¸´": 2321,
      "çļĦæĸ¹å¼ı": 2322,
      "æĺ¨å¤©": 2323,
      "æĹ¥å¸¸": 2324,
      "æĬķèµĦ": 2325,
      "ä»Ģä¹Īæĺ¯": 2326,
      "æĦī": 2327,
      "åĪĨäº«": 2328,
      "æ·»åĬł": 2329,
      "é¥°": 2330,
      "çķħ": 2331,
      "æĪĳåĸľæ¬¢": 2332,
      "æŁĶ": 2333,
      "çĶľ": 2334,
      "æ¸©åº¦": 2335,
      "ç¨³": 2336,
      "æİĴæĶ¾": 2337,
      "æ³³": 2338,
      "åĢ¼å¾Ĺ": 2339,
      "å®łçī©": 2340,
      "æ²ī": 2341,
      "è´µ": 2342,
      "è·Ŀ": 2343,
      "åģľ": 2344,
      "æľīçĿĢ": 2345,
      "çİ°å®ŀ": 2346,
      "ç§ĳåŃ¦å®¶": 2347,
      "å²Ľ": 2348,
      "åĬĽéĩı": 2349,
      "è¶ħè¿ĩ": 2350,
      "éĢĶ": 2351,
      "è¿ĩåİ»": 2352,
      "å§Ĩ": 2353,
      "çĨĬ": 2354,
      "èĤ¡": 2355,
      "åı£æĦŁ": 2356,
      "ç³»åĪĹ": 2357,
      "è°ģ": 2358,
      "æķĪæŀľ": 2359,
      "éħ±": 2360,
      "å°Ĩä¼ļ": 2361,
      "ï¼ĮâĢľ": 2362,
      "éĢīé¡¹": 2363,
      "éħ¸": 2364,
      "çļĦå·¥ä½ľ": 2365,
      "éĻĪ": 2366,
      "ç³ķ": 2367,
      "å¥ĸ": 2368,
      "ç¾İåĳ³": 2369,
      "çļĦç¬": 2370,
      "æ£®": 2371,
      "åĽ½å®¶": 2372,
      "ï¼ģ</": 2373,
      "å¹³åĿĩ": 2374,
      "æŃ»": 2375,
      "éľ²": 2376,
      "ä¼½": 2377,
      "ç¥ŀç»ı": 2378,
      "æĺİå¤©": 2379,
      "äººçī©": 2380,
      "æľĢåĸľæ¬¢": 2381,
      "å¤«": 2382,
      "å¿ĺ": 2383,
      "æĴŃ": 2384,
      "å®Ļ": 2385,
      "è¿ĽæŃ¥": 2386,
      "å¤§åŃ¦": 2387,
      "æ¬§": 2388,
      "çļĦæ®": 2389,
      "åĪĽå»º": 2390,
      "éĿł": 2391,
      "æİĮ": 2392,
      "äºĴèģĶç½ĳ": 2393,
      "å¿Ĩ": 2394,
      "éĢĤåºĶ": 2395,
      "çŃīé¢ĨåŁŁ": 2396,
      "ä»İè¿Ļç¯ĩæĸĩç«ł": 2397,
      "éĿ©": 2398,
      "åħ¨çĲĥåıĺæļĸ": 2399,
      "éĴĪå¯¹": 2400,
      "å®ĩå®Ļ": 2401,
      "æľīä¸Ģä¸ª": 2402,
      "å¥Ĺ": 2403,
      "èĨ": 2404,
      "ä¹īè¯į": 2405,
      "è°ĥæķ´": 2406,
      "åŁ¹": 2407,
      "çĽ¸åĲĮ": 2408,
      "è´§": 2409,
      "çļĦæĥħåĨµ": 2410,
      "30": 2411,
      "è¿Ļä¸ªåı¥åŃĲ": 2412,
      "åıĸå¾Ĺ": 2413,
      "éģĹ": 2414,
      "çļĦæľĢ": 2415,
      "åĨĻä½ľ": 2416,
      "ä¿®æĶ¹": 2417,
      "çļĦæ´": 2418,
      "12": 2419,
      "åĲĪéĢĤ": 2420,
      "ä¹³": 2421,
      "çļĦåľ°æĸ¹": 2422,
      "ľä¼½": 2423,
      "å°ıæĹ¶": 2424,
      "æ¸ħæĻ°": 2425,
      "æĪĳä»¬åºĶè¯¥": 2426,
      "è®©æĪĳä»¬": 2427,
      "æ·±åħ¥": 2428,
      "çĪ±æĥħ": 2429,
      "ä¸Ģé¦ĸ": 2430,
      "æĥħèĬĤ": 2431,
      "è§Ĩè§ī": 2432,
      "èĲ¥éĶĢ": 2433,
      "è·³": 2434,
      "æ³ķå¾ĭ": 2435,
      "çº½": 2436,
      "åī©ä¸ĭ": 2437,
      "æ¥¼": 2438,
      "é«ĺæķĪ": 2439,
      "åľ°çĤ¹": 2440,
      "åĨĴ": 2441,
      "æī¿": 2442,
      "åĪĽä½ľ": 2443,
      "æµ·æ´ĭ": 2444,
      "åĽłä¸ºå®ĥ": 2445,
      "åĽ°éļ¾": 2446,
      "æı¡": 2447,
      "ç§Ģ": 2448,
      "æ··": 2449,
      "æļĹ": 2450,
      "æĹ¥æľ¬": 2451,
      "ä»ĭç»įäºĨ": 2452,
      "å½¢å®¹": 2453,
      "åĢĴ": 2454,
      "ä¸ªç³ĸæŀľ": 2455,
      "æĹ¥æľŁ": 2456,
      "çļĦæ®µ": 2457,
      "æĹ¶å°ļ": 2458,
      "çļĦè¯Ŀ": 2459,
      "çŃĸçķ¥": 2460,
      "èĹı": 2461,
      "å·§åħĭ": 2462,
      "å¡ĳæĸĻ": 2463,
      "æ±Ł": 2464,
      "è¯įæ±ĩ": 2465,
      "æ±ī": 2466,
      "è¶³å¤Ł": 2467,
      "åºĬ": 2468,
      "ç½ĳç«Ļ": 2469,
      "éļĲç§ģ": 2470,
      "ä¼ĺåĮĸ": 2471,
      "å·¦": 2472,
      "çļĦçĥ": 2473,
      "æ½ľ": 2474,
      "è¢ĭ": 2475,
      "100": 2476,
      "éģĵå¾·": 2477,
      "çĽ¸ä¼¼": 2478,
      "ç£": 2479,
      "çļĦå¤§": 2480,
      "èĭ±è¯Ń": 2481,
      "å¿«ä¹Ĳ": 2482,
      "çļĦç¤¾": 2483,
      "éĨĴ": 2484,
      "ä¾ĭåŃĲ": 2485,
      "çļĦæ®µèĲ½": 2486,
      "å®Ī": 2487,
      "æ£Ĵ": 2488,
      "çļĦé£Łçī©": 2489,
      "ç»¿èī²": 2490,
      "æĵį": 2491,
      "çĦ¦èĻĳ": 2492,
      "æ±¤": 2493,
      "çļĦæ°Ķ": 2494,
      "å¹¶åľ¨": 2495,
      "æĺ¯çļĦ": 2496,
      "æł¹æį®ä»¥ä¸ĭ": 2497,
      "æļ´": 2498,
      "ç»ĨèĬĤ": 2499,
      "å°ģ": 2500,
      "çļĦæĹ¶åĢĻ": 2501,
      "åĪĨç±»ä¸º": 2502,
      "èį¯çī©": 2503,
      "äººå·¥æĻºèĥ½çļĦ": 2504,
      "æ¸¸æ³³": 2505,
      "æľĿ": 2506,
      "è´£ä»»": 2507,
      "æĹłè®º": 2508,
      "å¤ļæł·": 2509,
      "æĬ¥åĳĬ": 2510,
      "æıĲåĩº": 2511,
      "é¡¿": 2512,
      "éļľ": 2513,
      "çģ¯": 2514,
      "å·§åħĭåĬĽ": 2515,
      "ä»¥ä¸ĭæĺ¯ä¸Ģ": 2516,
      "å®ĥä»¬çļĦ": 2517,
      "ç¥ŀç§ĺ": 2518,
      "çĻ»": 2519,
      "ç®±": 2520,
      "åŃ£èĬĤ": 2521,
      "è¡Ĺ": 2522,
      "å¹³åı°": 2523,
      "æ¨¡å¼ı": 2524,
      "ä¿Ŀåģ¥": 2525,
      "æ¶Īè´¹": 2526,
      "åĲĪçĲĨ": 2527,
      "ä»įçĦ¶": 2528,
      "çļĦéĩįè¦ģæĢ§": 2529,
      "åı³": 2530,
      "ŁéĢļ": 2531,
      "æĶ¿çŃĸ": 2532,
      "åıįåºĶ": 2533,
      "ä¸Ģç¯ĩæĸĩç«ł": 2534,
      "èĢĲ": 2535,
      "çļĦå¥½": 2536,
      "..": 2537,
      "å¢ŀéķ¿": 2538,
      "ç»ŃåĨĻ": 2539,
      "æĲľç´¢": 2540,
      "æµĵ": 2541,
      "å°ıæĺİæľī": 2542,
      "å¸¦æĿ¥äºĨ": 2543,
      "çĬ¯": 2544,
      "ä¸įè¿ĩ": 2545,
      "ç¬¦åĲĪ": 2546,
      "å¹¿åĳĬ": 2547,
      "çĬ¶æĢģ": 2548,
      "åľ¨å®¶": 2549,
      "åĮĸçļĦ": 2550,
      "åĨ²": 2551,
      "åĺ": 2552,
      "æĶ¹è¿Ľ": 2553,
      "å¹¸ç¦ı": 2554,
      "ä¸Ģæł·": 2555,
      "åı£åĳ³": 2556,
      "åĹ": 2557,
      "çĶµèĦĳ": 2558,
      "åľĨ": 2559,
      "æĭ¼": 2560,
      "æĬĺ": 2561,
      "æĮ¥": 2562,
      "è£¤": 2563,
      "èĦĤ": 2564,
      "å¡Ķ": 2565,
      "æĦŁåıĹ": 2566,
      "çĹĽ": 2567,
      "æķĳ": 2568,
      "çĳľä¼½": 2569,
      "ä¸Ĭåįĩ": 2570,
      "Ġ=": 2571,
      "è¯įè¯Ń": 2572,
      "äººåĲį": 2573,
      "å¿ħè¦ģ": 2574,
      "åĪ¶éĢł": 2575,
      "çļĦä¸»": 2576,
      "ä¹İ": 2577,
      "çļĦæµ·": 2578,
      "çº½çº¦": 2579,
      "ç¼ĵè§£": 2580,
      "ç«¥": 2581,
      "æŃ£ç¡®çļĦ": 2582,
      "åħ¶æ¬¡": 2583,
      "çļĦæĳĺè¦ģ": 2584,
      "æĬĹ": 2585,
      "æĢ»æĺ¯": 2586,
      "æĺİç¡®": 2587,
      "50": 2588,
      "å·¥ç¨ĭ": 2589,
      "éĹ²": 2590,
      "èĦļ": 2591,
      "åľ°æĸ¹": 2592,
      "çī©çĲĨ": 2593,
      "æ½®": 2594,
      "é¼ĵåĬ±": 2595,
      "çº¸": 2596,
      "æĥħç»ª": 2597,
      "ç«ŀäºī": 2598,
      "åĪĨç»Ļ": 2599,
      "éĢĲæ¸Ĳ": 2600,
      "åĬ¨ä½ľ": 2601,
      "åį³åı¯": 2602,
      "æł¸": 2603,
      "ç±į": 2604,
      "åĽ½éĻħ": 2605,
      "åĩıè½»": 2606,
      "æŁĲäºĽ": 2607,
      "é»İ": 2608,
      "éĻĲåĪ¶": 2609,
      "è¿½æ±Ĥ": 2610,
      "æıĲä¾Ľä¸Ģä¸ª": 2611,
      "åıĹæ¬¢è¿İ": 2612,
      "ä¹ĭåīį": 2613,
      "è¾Ĩ": 2614,
      "çİ°è±¡": 2615,
      "å®¶å±ħ": 2616,
      "ä¸Ģåı¥è¯Ŀ": 2617,
      "æ¬£": 2618,
      "ä¸ĸçºª": 2619,
      "è´¡": 2620,
      "æ°¸": 2621,
      "è°·": 2622,
      "å¤ªç©º": 2623,
      "åĳ³éģĵ": 2624,
      "è·Ŀç¦»": 2625,
      "åºĶçĶ¨äºİ": 2626,
      "çħ®": 2627,
      "ä¸ĭæĸĩ": 2628,
      "æµĭè¯ķ": 2629,
      "æĻ¯çĤ¹": 2630,
      "ä¸Ŀ": 2631,
      "è®©ä½ł": 2632,
      "ç¥Ŀ": 2633,
      "çīĽå¥¶": 2634,
      "å®ŀéªĮ": 2635,
      "18": 2636,
      "çĤº": 2637,
      "ä¸ªæĢ§": 2638,
      "çĽĲ": 2639,
      "çĶŁæĢģç³»ç»Ł": 2640,
      "èĿ": 2641,
      "æıĲåįĩ": 2642,
      "åĵªä¸ª": 2643,
      "æĲŃéħį": 2644,
      "ç»¼": 2645,
      "åº¦åĴĮ": 2646,
      "æİ¨åĬ¨": 2647,
      "ä¸ĸçķĮä¸ĬæľĢ": 2648,
      "çº¢èī²": 2649,
      "åħ¬åħ±": 2650,
      "ä¸Ģå®¶": 2651,
      "ä½¿åħ¶æĽ´åĬł": 2652,
      "±ä¹Ĳ": 2653,
      "éĸ": 2654,
      "çĶ¨æĿ¥": 2655,
      "ä»¿": 2656,
      "å±ķç¤º": 2657,
      "æĿĳ": 2658,
      "éĶħ": 2659,
      "æĺ¯çĶ±": 2660,
      "ä¹ĺ": 2661,
      "èĤ¤": 2662,
      "è§£åĨ³æĸ¹æ¡Ī": 2663,
      "çļĦæ³": 2664,
      "åĢĳ": 2665,
      "åĬ³": 2666,
      "æĻļä¸Ĭ": 2667,
      "çļĦåĨħå®¹": 2668,
      "__": 2669,
      "çĽĺ": 2670,
      "èµŀ": 2671,
      "ç©ºéĹ´": 2672,
      "è²": 2673,
      "æĦıæĢĿ": 2674,
      "æ°Ķä½ĵ": 2675,
      "éĵħ": 2676,
      "å¿Ļ": 2677,
      "æĪĲéķ¿": 2678,
      "å¤ıåŃ£": 2679,
      "è´¡çĮ®": 2680,
      "åı¥åŃĲä¸Ń": 2681,
      "æ©ĻåŃĲ": 2682,
      "æ±ł": 2683,
      "çĬ¶åĨµ": 2684,
      "åĴĮåħ¶ä»ĸ": 2685,
      "å¸ģ": 2686,
      "è¯Ħä¼°": 2687,
      "æľºæŀĦ": 2688,
      "æľªæĿ¥çļĦ": 2689,
      "å¼łä¸ī": 2690,
      "è®°å½ķ": 2691,
      "æķ£æŃ¥": 2692,
      "åİŁå§ĭ": 2693,
      "æ¹ĸ": 2694,
      "è¿Ļå®¶": 2695,
      "ä¸ĢèĪ¬": 2696,
      "çļĦåİĨåı²": 2697,
      "æŃ§": 2698,
      "åĲ«ä¹ī": 2699,
      "å®Įåħ¨": 2700,
      "å®«": 2701,
      "åİļ": 2702,
      "èİ·åıĸ": 2703,
      "åĲ¯": 2704,
      "å¥³æĢ§": 2705,
      "å°Ĭéĩį": 2706,
      "æĹ©ä¸Ĭ": 2707,
      "å°į": 2708,
      "åĤ¨": 2709,
      "æĪ·å¤ĸ": 2710,
      "æĿ¥èĩª": 2711,
      "ä¹Łä¼ļ": 2712,
      "å¥¹çļĦ": 2713,
      "åı¯èĥ½æĺ¯": 2714,
      "ä¸ľè¥¿": 2715,
      "å¥ĭ": 2716,
      "ç»Ļåĩºä¸Ģä¸ª": 2717,
      "çĶŁæ´»ä¸Ń": 2718,
      "æī©": 2719,
      "çĽ¸ä¿¡": 2720,
      "åĪĹè¡¨": 2721,
      "æ±ģ": 2722,
      "ä¸Ĭæµ·": 2723,
      "æĪĲæľ¬": 2724,
      "ãĢĤâĢĿ</": 2725,
      "ç¯®": 2726,
      "è°ĥæŁ¥": 2727,
      "è®ºæĸĩ": 2728,
      "çļĦæĢĿ": 2729,
      "çĽ´æİ¥": 2730,
      "åħŃ": 2731,
      "æĬĢæľ¯çļĦ": 2732,
      "è¾¾åĪ°": 2733,
      "åºĶçĶ¨ç¨ĭåºı": 2734,
      "åľ¨çº¿": 2735,
      "æĺł": 2736,
      "åĮ»çĸĹä¿Ŀåģ¥": 2737,
      "çłĶ": 2738,
      "åĨł": 2739,
      "ç½ª": 2740,
      "éĢĻ": 2741,
      "ä¸įçŁ¥éģĵ": 2742,
      "æĦıåĳ³": 2743,
      "æĪĳè®¤ä¸º": 2744,
      "çİī": 2745,
      "æ»ĳ": 2746,
      "ç»Ļä½ł": 2747,
      "æĸ¹ä¾¿": 2748,
      "çĥ§": 2749,
      "åĽŀçŃĶéĹ®é¢ĺ": 2750,
      "éĤ£éĩĮ": 2751,
      "å¦Ī": 2752,
      "éģį": 2753,
      "æĿ°": 2754,
      "è¡¨è¾¾äºĨ": 2755,
      "å·´é»İ": 2756,
      "éĵħç¬Ķ": 2757,
      "åĪĨåĪ«": 2758,
      "æĪĳå¾Ī": 2759,
      "æ·±åĪ»": 2760,
      "æ´¾": 2761,
      "æŃ¥éª¤": 2762,
      "è¶³çĲĥ": 2763,
      "æĦıå¤§åĪ©": 2764,
      "å¾Ħ": 2765,
      "åĽº": 2766,
      "æĶ¹åĨĻ": 2767,
      "åŃ¦ä¹łåĴĮ": 2768,
      "éº¦": 2769,
      "æįŁ": 2770,
      "ä¸Ģå¤©": 2771,
      "æĢ¥": 2772,
      "èĳĹåĲįçļĦ": 2773,
      "èĽĭçĻ½": 2774,
      "åı¯ä»¥ä½¿çĶ¨": 2775,
      "çĩĥ": 2776,
      "æĸĹ": 2777,
      "è¿Ļç¯ĩ": 2778,
      "èĩ³å°ĳ": 2779,
      "ä¸¤ä¸ªåı¥åŃĲ": 2780,
      "æŀ¶": 2781,
      "ç¼©": 2782,
      "åĩī": 2783,
      "åĳĪ": 2784,
      "åĮĸåŃ¦": 2785,
      "é¥¼": 2786,
      "è¡¨éĿ¢": 2787,
      "ç¨³å®ļ": 2788,
      "åºŁ": 2789,
      "å®½": 2790,
      "åıĳå¸ĥ": 2791,
      "æĸ°éĹ»æĬ¥éģĵ": 2792,
      "äººçĶŁ": 2793,
      "ä¸Ģç»Ħ": 2794,
      "çİ¯å¢ĥä¿ĿæĬ¤": 2795,
      "æ°Ķæ¸©": 2796,
      "åĿļæĮģ": 2797,
      "éĻĦ": 2798,
      "çļĦäºĭæĥħ": 2799,
      "æĽ¿æį¢": 2800,
      "æĦıåĳ³çĿĢ": 2801,
      "åĪº": 2802,
      "å½ĵåīį": 2803,
      "æŃī": 2804,
      "ç±»ä¼¼": 2805,
      "çŃ¾": 2806,
      "å¹¶ä¸į": 2807,
      "èĩªè¡Į": 2808,
      "ä»¥ç¡®ä¿Ŀ": 2809,
      "ä½Ľ": 2810,
      "åģ¥åº·çļĦ": 2811,
      "åĶ±": 2812,
      "éĩıåŃĲ": 2813,
      "çĽ¸åħ³çļĦ": 2814,
      "å¹ħ": 2815,
      "éľĩ": 2816,
      "çĤĴ": 2817,
      "æģ¶": 2818,
      "on": 2819,
      "çļĦæ´»": 2820,
      "ç»©": 2821,
      "æĿŁ": 2822,
      "ç»ĺ": 2823,
      "å¤©ç©º": 2824,
      "æİī": 2825,
      "æĶ»": 2826,
      "è¡£æľį": 2827,
      "çļĦä¸Ģä¸ª": 2828,
      "åĪĨåĪ°": 2829,
      "éľĢè¦ģæ³¨æĦı": 2830,
      "çļĦç³": 2831,
      "çľŁæŃ£": 2832,
      "éĽħ": 2833,
      "æ¯ıä¸ªæľĭåıĭ": 2834,
      "æĤ¦": 2835,
      "å°¤": 2836,
      "¡èĲ": 2837,
      "çīĻ": 2838,
      "åĬ¨è¯į": 2839,
      "è®¢": 2840,
      "å¯Ĵ": 2841,
      "æİ¨å¹¿": 2842,
      "åºĵ": 2843,
      "çıį": 2844,
      "ä¿Ŀè¯ģ": 2845,
      "çļĦæĸ°": 2846,
      "å®ļä¹ī": 2847,
      "æ¶¦": 2848,
      "åı¯ä»¥è¢«": 2849,
      "æİ¥åıĹ": 2850,
      "ä¼ĺåĬ¿": 2851,
      "æĢĿæĥ³": 2852,
      "çĽĽ": 2853,
      "èĥ½éĩı": 2854,
      "èĤĮ": 2855,
      "å¼ĥ": 2856,
      "éªĳ": 2857,
      "å®īæİĴ": 2858,
      "èĭ¦": 2859,
      "æ£®æŀĹ": 2860,
      "çĿ¡çľł": 2861,
      "æī§è¡Į": 2862,
      "æ¨¡æĭŁ": 2863,
      "æĺİäºĨ": 2864,
      "æģĲ": 2865,
      "ç§ĳå¹»": 2866,
      "åĩºèī²": 2867,
      "æ¤Ĵ": 2868,
      "èĢĮä¸įæĺ¯": 2869,
      "ä½łå¥½": 2870,
      "çļĦæĦıæĢĿ": 2871,
      "ç»ĵåĲĪ": 2872,
      "æıĲä¾Ľä¸ĢäºĽ": 2873,
      "è½»æĿ¾": 2874,
      "ä½łéľĢè¦ģ": 2875,
      "å¾ª": 2876,
      "çļĦæĻº": 2877,
      "ä¼ĺç§Ģ": 2878,
      "è©": 2879,
      "çļĦçĭ": 2880,
      "äººç±»çļĦ": 2881,
      "ä¸ŃæľĢ": 2882,
      "å®¶äºº": 2883,
      "äºĨä¸ĢäºĽ": 2884,
      "çļĦçĪ±": 2885,
      "çĽ¸äºĴ": 2886,
      "åĴĮæĸĩåĮĸ": 2887,
      "ä¸ĭåĪĹ": 2888,
      "ç»Ļå®ļä¸Ģä¸ª": 2889,
      "åı¯æĮģç»Ńåıĳå±ķ": 2890,
      "åıĳæĮ¥": 2891,
      "åħ±æľī": 2892,
      "ä¸»ä¹ī": 2893,
      "çļĦæıı": 2894,
      "ä¸Ģä¸ªäºº": 2895,
      "èĽĭç³ķ": 2896,
      "å®ļæľŁ": 2897,
      "è¯·åĳĬè¯īæĪĳ": 2898,
      "è·µ": 2899,
      "ç¿°": 2900,
      "çĥŁ": 2901,
      "æĺ¯ä¸Ģéĥ¨": 2902,
      "èĭı": 2903,
      "è§Ĥä¼Ĺ": 2904,
      "èĪ¹": 2905,
      "å°¾": 2906,
      "çµ": 2907,
      "å¨±ä¹Ĳ": 2908,
      "æĵįä½ľ": 2909,
      "æµģè¡Į": 2910,
      "ä¹Łæľī": 2911,
      "èĤ¥": 2912,
      "é«ĺåħ´": 2913,
      "çļĦçģ": 2914,
      "çĽ®çļĦåľ°": 2915,
      "å¤§å®¶": 2916,
      "åĵ¥": 2917,
      "åľ¨ä¸Ģèµ·": 2918,
      "å©ļ": 2919,
      "éĿ¢å¯¹": 2920,
      "åĪĹåĩº": 2921,
      "æĹ¶ä»£": 2922,
      "æĢ»ä¹ĭ": 2923,
      "ä¹¦ç±į": 2924,
      "èĥģ": 2925,
      "æīĢæľīçļĦ": 2926,
      "æĪĳåľ¨": 2927,
      "çļĦæĢ»": 2928,
      "çĽ¸å¯¹": 2929,
      "æ³¡": 2930,
      "åĮ»çĸĹé¢ĨåŁŁ": 2931,
      "åĿ¦": 2932,
      "æ¹¿": 2933,
      "é¥®æĸĻ": 2934,
      "çĶŁåŃĺ": 2935,
      "é¾Ħ": 2936,
      "å®ľ": 2937,
      "çļĦæ¦Ĥ": 2938,
      "ä¾Ĩ": 2939,
      "æĬ½åıĸ": 2940,
      "æ³¨éĩį": 2941,
      "èī¯å¥½çļĦ": 2942,
      "åĨĻä¸Ģç¯ĩ": 2943,
      "è®¿": 2944,
      "éĢ»": 2945,
      "è¯ļ": 2946,
      "ç¨ĭåº¦": 2947,
      "202": 2948,
      "åīįå¾Ģ": 2949,
      "åıªæĺ¯": 2950,
      "çľŁçļĦ": 2951,
      "éĢĤéĩı": 2952,
      "æ¼Ķåĳĺ": 2953,
      "è¾£": 2954,
      "å¨ģèĥģ": 2955,
      "æľīåĵªäºĽ": 2956,
      "ä¸ļåĬ¡": 2957,
      "è¿Ľåħ¥": 2958,
      "ç»ĵè®º": 2959,
      "å¥ı": 2960,
      "é¢Ħéĺ²": 2961,
      "åħ¶ä¸ŃçļĦ": 2962,
      "è°±": 2963,
      "æİĮæı¡": 2964,
      "éĤ£äºĽ": 2965,
      "åı¤è¯Ĺ": 2966,
      "æĮĩåĩº": 2967,
      "æľµ": 2968,
      "è·ĳæŃ¥": 2969,
      "æİ¨çĲĨ": 2970,
      "å¹´çļĦ": 2971,
      "å®ŀè·µ": 2972,
      "å¯»æ±Ĥ": 2973,
      "åĳ¨åĽ´": 2974,
      "çĭ¬çī¹çļĦ": 2975,
      "åĵº": 2976,
      "æµģçķħ": 2977,
      "è¿Ľè¡ĮåĪĨç±»": 2978,
      "æĸĩæľ¬åĨħå®¹": 2979,
      "åŃ¤çĭ¬": 2980,
      "çĶļ": 2981,
      "å£°éŁ³": 2982,
      "å¼ĢæĶ¾": 2983,
      "æ¶²": 2984,
      "èĻļæĭŁ": 2985,
      "æ¸©æļĸ": 2986,
      "çıł": 2987,
      "ä½ĵèĤ²": 2988,
      "çİĽä¸½": 2989,
      "çº¦ç¿°": 2990,
      "éĩįçĤ¹": 2991,
      "æŃ§è§Ĩ": 2992,
      "åŃ¸": 2993,
      "ä»ĸåľ¨": 2994,
      "åįģåĪĨ": 2995,
      "ç»ıè¿ĩ": 2996,
      "éĽ¶": 2997,
      "è§ĦåĪĴ": 2998,
      "å¾Ĺåĩº": 2999,
      "æ°§åĮĸ": 3000,
      "å¦Ļ": 3001,
      "ä½¿åħ¶æĽ´": 3002,
      "ç²¾ç¥ŀ": 3003,
      "æ¦Ĥå¿µ": 3004,
      "ä¸Ńæĸĩ": 3005,
      "è¿ŀæİ¥": 3006,
      "çļĦçŁŃ": 3007,
      "çī©ä½ĵ": 3008,
      "åĵªéĩĮ": 3009,
      "éĢ»è¾ĳ": 3010,
      "èĩªåĬ¨åĮĸ": 3011,
      "æ³°": 3012,
      "æĪĲè¯Ń": 3013,
      "èķī": 3014,
      "è§ĦåĪĻ": 3015,
      "é¸¡èĽĭ": 3016,
      "çļĦé£İéĻ©": 3017,
      "å¤ªéĺ³ç³»": 3018,
      "çĲĨè®º": 3019,
      "çļĦæĥ³": 3020,
      "åĩĢ": 3021,
      "èľľ": 3022,
      "æĹ¨åľ¨": 3023,
      "è½®": 3024,
      "çĹħæ¯Ĵ": 3025,
      "æľĢä½³": 3026,
      "æķ¬": 3027,
      "éķ¿åº¦": 3028,
      "æĺ¾ç¤º": 3029,
      "éĥ½ä¼ļ": 3030,
      "èĵĿèī²": 3031,
      "èĤ¯": 3032,
      "ä¸Ģæ¬¾": 3033,
      "åĢ¾": 3034,
      "åľ¨ä¸Ģä¸ª": 3035,
      "æľīæīĢ": 3036,
      "æµ·æ»©": 3037,
      "èĩªåĬ¨é©¾é©¶": 3038,
      "æĸ°é²ľ": 3039,
      "æĪĳéľĢè¦ģ": 3040,
      "å·¥ä¸ļ": 3041,
      "åħ³éĶ®ä¿¡æģ¯": 3042,
      "200": 3043,
      "ä¸ĬéĿ¢": 3044,
      "ä¹¡": 3045,
      "æ··åĲĪ": 3046,
      "æĢĢ": 3047,
      "åĪĨä¸º": 3048,
      "å´": 3049,
      "æıĲåıĸåĩº": 3050,
      "è´Ŀ": 3051,
      "éģµ": 3052,
      "éĹŃ": 3053,
      "ç¾İå¥½çļĦ": 3054,
      "è¡¥": 3055,
      "æĸĩåĮĸåĴĮ": 3056,
      "é¦Ļèķī": 3057,
      "åĲĦä¸ª": 3058,
      "éº¼": 3059,
      "çļĦæĻ¯": 3060,
      "æĪĲä¸ºäºĨ": 3061,
      "å°Ĩä»¥ä¸ĭ": 3062,
      "èº«ä½ĵåģ¥åº·": 3063,
      "äº¡": 3064,
      "èĭ±åĽ½": 3065,
      "ç§¯æŀģçļĦ": 3066,
      "èĦ±": 3067,
      "æĬ±æŃī": 3068,
      "ä¸»äºº": 3069,
      "ä¼ĺçĤ¹": 3070,
      "åĵºä¹³": 3071,
      "çĤİ": 3072,
      "çĶ³": 3073,
      "åĨĻä¸Ģä¸ª": 3074,
      "æĺ¯ä¸Ģä½į": 3075,
      "æĺ¯ä¸ŃåĽ½": 3076,
      "è¿Ļæ¬¾": 3077,
      "é«ĺåº¦": 3078,
      "å¥³åŃ©": 3079,
      "çŁŃæĸĩ": 3080,
      "åľ£": 3081,
      "æł¹æį®æıĲä¾Ľ": 3082,
      "èĩªè¡Įè½¦": 3083,
      "çļĦæ´»åĬ¨": 3084,
      "å°ıåŃ¦": 3085,
      "æ²ŁéĢļ": 3086,
      "åį·": 3087,
      "æĩĤ": 3088,
      "èªī": 3089,
      "è´¥": 3090,
      "ï¼īï¼Į": 3091,
      "ç¾İä¸½çļĦ": 3092,
      "æĭį": 3093,
      "çĬ¬": 3094,
      "ãĢĭãĢģ": 3095,
      "è¯·ç»ĻæĪĳ": 3096,
      "éķĩ": 3097,
      "ç¥ŀç»ıç½ĳç»ľ": 3098,
      "åħ«": 3099,
      "XX": 3100,
      "åģ¥åº·é¥®é£Ł": 3101,
      "æ¡Į": 3102,
      "è¯ŃéŁ³è¯ĨåĪ«": 3103,
      "å«": 3104,
      "ç®Ģè¦ģ": 3105,
      "çļĦæııè¿°": 3106,
      "å¹³çŃī": 3107,
      "æĹ¶éĹ´åĴĮ": 3108,
      "å±ķçİ°": 3109,
      "ĠâĢľ": 3110,
      "ä»£çłģ": 3111,
      "è¿¹": 3112,
      "æ¾": 3113,
      "åĳ¨æľ«": 3114,
      "ï¼īãĢĤ": 3115,
      "éĿ¢åĮħ": 3116,
      "ä¹ĭåĲİ": 3117,
      "éª¨": 3118,
      "éŃĶæ³ķ": 3119,
      "å®Ĺ": 3120,
      "ç¤¾åĮº": 3121,
      "æłĩåĩĨ": 3122,
      "åºĨ": 3123,
      "è§¦": 3124,
      "æķ°æį®éĽĨ": 3125,
      "èİĵ": 3126,
      "çļĦçŃĶæ¡Ī": 3127,
      "èĭĹ": 3128,
      "çļĦæīĭ": 3129,
      "éĥģ": 3130,
      "éĻĪè¿°": 3131,
      "å¾ĹåĪ°äºĨ": 3132,
      "çļĦæĭ": 3133,
      "ä¹ı": 3134,
      "å»¶": 3135,
      "æŁĲä¸ª": 3136,
      "æĸĩæľ¬ä¸ŃçļĦ": 3137,
      "é¢Ĩå¯¼": 3138,
      "åįļçī©": 3139,
      "ç®ĢåįķçļĦ": 3140,
      "çļĦæĮĳæĪĺ": 3141,
      "æĹ¶æľŁ": 3142,
      "ç§°ä¸º": 3143,
      "ä¼ĳæģ¯": 3144,
      "æĦŁåıĹåĪ°": 3145,
      "åīĤ": 3146,
      "çļĦæĢ§": 3147,
      "è®²è¿°äºĨ": 3148,
      "æ¬£èµı": 3149,
      "è½¬æį¢": 3150,
      "çĪ±å¥½": 3151,
      "æħ§": 3152,
      "è³": 3153,
      "åı¤ä»£": 3154,
      "æī¾åĩº": 3155,
      "åĨ¥": 3156,
      "æĶ¾åľ¨": 3157,
      "åĪĨéħį": 3158,
      "å·¦åı³": 3159,
      "æĹ§": 3160,
      "ä»Ģéº¼": 3161,
      "è¯¾ç¨ĭ": 3162,
      "ç¬¬ä¸Ģ": 3163,
      "èĢ³": 3164,
      "è¯Ńè¨Ģæ¨¡åŀĭ": 3165,
      "åĵģè´¨": 3166,
      "çļĦæİ¨": 3167,
      "çĴ": 3168,
      "æľŁéĹ´": 3169,
      "ĠĠ": 3170,
      "èĥ½åĲ¦": 3171,
      "çļĦæķĪ": 3172,
      "ä¸ĥ": 3173,
      "å®ģ": 3174,
      "åĨįçĶŁ": 3175,
      "è½½": 3176,
      "æĺŁæľŁ": 3177,
      "äº¿": 3178,
      "è¡¨æ¼Ķ": 3179,
      "è¿Ļæľ¬ä¹¦": 3180,
      "åĬĽçļĦ": 3181,
      "ä¸ºæĪĳ": 3182,
      "æĪ¿éĹ´": 3183,
      "åĮºåĿĹ": 3184,
      "åĨĴéĻ©": 3185,
      "å®ĥåı¯ä»¥": 3186,
      "å£®": 3187,
      "å¤§æ°Ķ": 3188,
      "å¯¿": 3189,
      "ªæĺİ": 3190,
      "æĹĭ": 3191,
      "èļ": 3192,
      "ĠæĪĳ": 3193,
      "æ¸ħæ´ģ": 3194,
      "åıĬæĹ¶": 3195,
      "åĮĢ": 3196,
      "èĽĭçĻ½è´¨": 3197,
      "çľĭçĶµå½±": 3198,
      "åħ·ä½ĵçļĦ": 3199,
      "æĿĢ": 3200,
      "âĢĶâĢĶ": 3201,
      "çĶļèĩ³": 3202,
      "çĶŁæ´»æĸ¹å¼ı": 3203,
      "çģ¾å®³": 3204,
      "çĭ¬ç«ĭ": 3205,
      "å°¤åħ¶": 3206,
      "ãĢĭãĢģãĢĬ": 3207,
      "è¿ª": 3208,
      "å¼ºè°ĥäºĨ": 3209,
      "çĶŁæĪĲåķĨåĵģ": 3210,
      "æĥħåĨµä¸ĭ": 3211,
      "èĤª": 3212,
      "çĽ¸åºĶ": 3213,
      "å¹¶æıĲä¾Ľ": 3214,
      "çĻĮ": 3215,
      "èĦĤèĤª": 3216,
      "æĺĵäºİ": 3217,
      "æĢĿç»´": 3218,
      "æĭĮ": 3219,
      "å½Ĵç±»": 3220,
      "è¯º": 3221,
      "«èĲ¨": 3222,
      "å®¤æ°Ķä½ĵ": 3223,
      "èĮĦ": 3224,
      "é¼ł": 3225,
      "çļĦåİŁåĽł": 3226,
      "è®¤è¯Ĩ": 3227,
      "é¢Ĺç³ĸæŀľ": 3228,
      "åłĤ": 3229,
      "ç§įæĹı": 3230,
      "æ®Ĭ": 3231,
      "äºĨä¸Ģç§į": 3232,
      "äºĭçī©": 3233,
      "ä¼ĳéĹ²": 3234,
      "æķı": 3235,
      "å½¢å®¹è¯į": 3236,
      "æľĢå¥½çļĦ": 3237,
      "ç§įç±»": 3238,
      "å®¾": 3239,
      "é»ĺ": 3240,
      "çļĦèĥ½åĬĽ": 3241,
      "ä¹Ŀ": 3242,
      "äºĨè®¸å¤ļ": 3243,
      "é»ĳæ´ŀ": 3244,
      "çļĦä¸»è¦ģè§ĤçĤ¹": 3245,
      "å°Ĩåľ¨": 3246,
      "äº¤æĺĵ": 3247,
      "çļĦç©": 3248,
      "å·Ŀ": 3249,
      "äºĴåĬ¨": 3250,
      "åĵºä¹³åĬ¨çī©": 3251,
      "ç¶": 3252,
      "æ»¡æĦı": 3253,
      "æľĢæĸ°": 3254,
      "èĳ±": 3255,
      "è°ĵ": 3256,
      "æ¶Īè´¹èĢħ": 3257,
      "èĦı": 3258,
      "æľĢå¥½": 3259,
      "åĢŁ": 3260,
      "æľĥ": 3261,
      "è®¨è®ºäºĨ": 3262,
      "å®ĥæĺ¯": 3263,
      "å¼¹": 3264,
      "æ¦": 3265,
      "å¸Ŀ": 3266,
      "æİ¥ä¸ĭæĿ¥": 3267,
      "å¼ºçĥĪ": 3268,
      "æ¼Ĥ": 3269,
      "è¿ĺéľĢè¦ģ": 3270,
      "å¹´é¾Ħ": 3271,
      "éĻ¤äºĨ": 3272,
      "æİ¢è®¨äºĨ": 3273,
      "è§Ī": 3274,
      "éĢĢ": 3275,
      "å®Įæķ´": 3276,
      "æ¯ıä¸ªäººéĥ½": 3277,
      "çĸ«æĥħ": 3278,
      "è¿ħ": 3279,
      "æĪĳæĹłæ³ķ": 3280,
      "çļĦç³ĸ": 3281,
      "ç¿»è¯ĳæĪĲ": 3282,
      "çļĦéŁ³ä¹Ĳ": 3283,
      "åĵ²": 3284,
      "å½¼": 3285,
      "èĢĹ": 3286,
      "èģĬå¤©": 3287,
      "ä½łä»¬": 3288,
      "åħħåĪĨ": 3289,
      "æĢ»ç»Ł": 3290,
      "ä¸Ĭä¸ĭæĸĩ": 3291,
      "æ¶Īæŀģ": 3292,
      "è¾ħ": 3293,
      "æ³ķåĽ½": 3294,
      "æľīè¶£çļĦ": 3295,
      "æĹ¢": 3296,
      "è´ŁéĿ¢å½±åĵį": 3297,
      "å¤ļçļĦ": 3298,
      "ä¹Łå¾Ī": 3299,
      "èī²å½©": 3300,
      "å®£ä¼ł": 3301,
      "åįļçī©é¦Ĩ": 3302,
      "èº«å¿ĥ": 3303,
      "éĢĴ": 3304,
      "çľĭèµ·æĿ¥": 3305,
      "çĶŁæĹ¥": 3306,
      "çªĹ": 3307,
      "æĢ§èĥ½": 3308,
      "éķ¿æľŁ": 3309,
      "åĴ¨": 3310,
      "è¯Ńæ³ķéĶĻè¯¯": 3311,
      "çļĦæķ°éĩı": 3312,
      "Ġæııè¿°": 3313,
      "è¹": 3314,
      "çļĦç¬¬": 3315,
      "é¡¶": 3316,
      "è§Ĩé¢ĳ": 3317,
      "ä¸Ģæľ¬": 3318,
      "çĵľ": 3319,
      "éº»": 3320,
      "åĲ¬èµ·æĿ¥": 3321,
      "èģªæĺİ": 3322,
      "æķ¢": 3323,
      "çļĦæ¯Ķ": 3324,
      "ç»ķ": 3325,
      "å¹´æĿ¥": 3326,
      "çļĦç¥": 3327,
      "çķª": 3328,
      "åıĺå¾ĹæĽ´åĬł": 3329,
      "å¿ĥæĥħ": 3330,
      "éĺ¶": 3331,
      "çļĦç²": 3332,
      "é¢ĦæĬ¥": 3333,
      "éĻĨ": 3334,
      "çļĦçĹ": 3335,
      "é½": 3336,
      "å¹¶æ²¡æľī": 3337,
      "è§£åĨ³éĹ®é¢ĺ": 3338,
      "åĴ¨è¯¢": 3339,
      "éĿŀå¸¸å¥½": 3340,
      "çļĦçŁ¥": 3341,
      "ï¼ŁâĢĿ": 3342,
      "ç§»åĬ¨": 3343,
      "çĪ¶": 3344,
      "çļĦçİ¯å¢ĥ": 3345,
      "æĺİæĺ¾": 3346,
      "æİ¨åĩº": 3347,
      "è§Ĥå¯Ł": 3348,
      "çĶŁéķ¿": 3349,
      "æĥł": 3350,
      "æĺŁçĲĥ": 3351,
      "çº¯": 3352,
      "ç»´æĬ¤": 3353,
      "ä¼łæĴŃ": 3354,
      "åĮºåĿĹéĵ¾": 3355,
      "çľĭçľĭ": 3356,
      "çĽ´åĪ°": 3357,
      "ä½ĨæĪĳ": 3358,
      "çļĦæīĢ": 3359,
      "åĳĪçİ°": 3360,
      "è¸ª": 3361,
      "æĻºèĥ½å®¶å±ħ": 3362,
      "çªģçĦ¶": 3363,
      "éķľ": 3364,
      "å¯¹çİ¯å¢ĥ": 3365,
      "èį£": 3366,
      "å·¨å¤§": 3367,
      "çĸ²": 3368,
      "ç¾İåħĥ": 3369,
      "åĴĮç¤¾ä¼ļ": 3370,
      "æŃ¦": 3371,
      "å®¡": 3372,
      "çļĦè¡Įä¸º": 3373,
      "çĶ²": 3374,
      "æĭ¼åĨĻ": 3375,
      "ï¼ļãĢĬ": 3376,
      "çĺ": 3377,
      "éĽ·": 3378,
      "è§Ħå¾ĭ": 3379,
      "éĴ¢": 3380,
      "çļĦæ±": 3381,
      "åĮºåŁŁ": 3382,
      "åĲĮä¹īè¯į": 3383,
      "æĳĦåħ¥": 3384,
      "èī¾": 3385,
      "éĵ¶è¡Į": 3386,
      "å±ĭ": 3387,
      "èī¯å¥½": 3388,
      "ç¡¬": 3389,
      "è¿ĩåº¦": 3390,
      "çļĦéĢīæĭ©": 3391,
      "å¡«": 3392,
      "åĨ¥æĥ³": 3393,
      "åĽŀæĶ¶": 3394,
      "åį±éĻ©": 3395,
      "èĻ«": 3396,
      "å°ıçĭĹ": 3397,
      "æį·": 3398,
      "çļĦç¼": 3399,
      "çļĦæ¸©": 3400,
      "çĶ°": 3401,
      "åĶĲ": 3402,
      "çļĦçĥŃ": 3403,
      "Ġ2": 3404,
      "çĽ®çļĦ": 3405,
      "çī¹æ®Ĭ": 3406,
      "æĤ¨éľĢè¦ģ": 3407,
      "çļĦçĿ": 3408,
      "åĽŀå®¶": 3409,
      "éļıæĹ¶": 3410,
      "åīįæĻ¯": 3411,
      "çĶµåŃĲéĤ®ä»¶": 3412,
      "å»ºè®¾": 3413,
      "âĢ¦": 3414,
      "æĶ¯ä»ĺ": 3415,
      "å¤§èĩªçĦ¶": 3416,
      "çĵ¶": 3417,
      "åı¯çĪ±": 3418,
      "çĶ¨çļĦ": 3419,
      "åĦ¿ç«¥": 3420,
      "äººæ°ĳ": 3421,
      "çĶŁæĪĲä¸Ģæ®µ": 3422,
      "æł·çļĦ": 3423,
      "ä¸ĭåįĪ": 3424,
      "ä¸°å¯ĮçļĦ": 3425,
      "éĩįå¤į": 3426,
      "å¹ķ": 3427,
      "æ·¡": 3428,
      "çī¹èī²": 3429,
      "èĥŀ": 3430,
      "åŃĲçļĦ": 3431,
      "æµ®": 3432,
      "ä»ĸä»¬çļĦå¯¹è¯ĿåĨħå®¹": 3433,
      "åı¹": 3434,
      "åĪĨæĪĲ": 3435,
      "çļĦæ¼": 3436,
      "åŁºåĽł": 3437,
      "æĪĳæľĢè¿ĳ": 3438,
      "ä»İæĸĩç«łä¸ŃæıĲåıĸåĩº": 3439,
      "åĪ°è¾¾": 3440,
      "åĵģç§į": 3441,
      "ä»İæĸĩç«łä¸ŃæıĲåıĸ": 3442,
      "æľīæ²¡æľī": 3443,
      "ç©¿çĿĢ": 3444,
      "æ´Ľ": 3445,
      "å¦ĤæŃ¤": 3446,
      "èħ¿": 3447,
      "æĭĽ": 3448,
      "ç¾İå¥½": 3449,
      "æīĺ": 3450,
      "çļĦæķĻ": 3451,
      "éŁ©": 3452,
      "æľīè®¸å¤ļ": 3453,
      "çļĦæĥ³æ³ķ": 3454,
      "çļĦç¨": 3455,
      "åĪĽå»ºä¸Ģä¸ª": 3456,
      "æ¶µ": 3457,
      "è¿Ŀ": 3458,
      "åł¡": 3459,
      "èµ¢": 3460,
      "è®°å¿Ĩ": 3461,
      "æĸ¼": 3462,
      "è¢«è®¤ä¸º": 3463,
      "éļ¾ä»¥": 3464,
      "åĵģå°Ŀ": 3465,
      "ĽåĽ´": 3466,
      "åľ¨äºİ": 3467,
      "éĹª": 3468,
      "ç¯®çĲĥ": 3469,
      "æĦīå¿«": 3470,
      "çļĦæ¸¸": 3471,
      "èĦ¸": 3472,
      "åı¯åĨįçĶŁ": 3473,
      "æĶ¾åħ¥": 3474,
      "è¿Ļé¡¹": 3475,
      "ç§ĭå¤©": 3476,
      "ä¿ĿæĬ¤çİ¯å¢ĥ": 3477,
      "æĪĲå°±": 3478,
      "æĪĲåĪĨ": 3479,
      "å¹³éĿ¢": 3480,
      "çļĦçĿ¡": 3481,
      "é£ŁæĿĲ": 3482,
      "å¡ŀ": 3483,
      "æķ°åŃ¦é¢ĺ": 3484,
      "çļĦä¸Ģç§į": 3485,
      "éģĩåĪ°": 3486,
      "å¸¸è§ģçļĦ": 3487,
      "ä¸Ģé¡¹": 3488,
      "æģ©": 3489,
      "äºĪ": 3490,
      "çī©ç§į": 3491,
      "çļĦåŁİå¸Ĥ": 3492,
      "éĤ£ä¸ª": 3493,
      "çĶŁç´ł": 3494,
      "çļĦç½": 3495,
      "å½¢è±¡": 3496,
      "ä¸ĢæĿ¡": 3497,
      "çĿĽ": 3498,
      "æııè¿°äºĨ": 3499,
      "æĻ´": 3500,
      "çĶŁæĪĲåķĨåĵģæĸĩæ¡Ī": 3501,
      "æľĢå¤§": 3502,
      "è§Ħæ¨¡": 3503,
      "åįł": 3504,
      "çĪĨ": 3505,
      "åįĸ": 3506,
      "çļĦæīĢæľī": 3507,
      "é£İæĻ¯": 3508,
      "æª": 3509,
      "çļĦæĦŁè§ī": 3510,
      "é£ŀè¡Į": 3511,
      "è¿Ļé¦ĸ": 3512,
      "å°º": 3513,
      "è¿Ľè¡ĮäºĨ": 3514,
      "åı¯ä»¥è®©": 3515,
      "çļĦæŃĮ": 3516,
      "éĢĥ": 3517,
      "ä¸»è¯Ń": 3518,
      "è¿ĺåī©ä¸ĭ": 3519,
      "èľĤ": 3520,
      "åŃ¦ä¼ļ": 3521,
      "éĢĤå½ĵçļĦ": 3522,
      "æĿ¥æºĲ": 3523,
      "æľŁå¾ħ": 3524,
      "åĲ«æľī": 3525,
      "ç¬¦åı·": 3526,
      "æī¹": 3527,
      "ä¼Ĭ": 3528,
      "å»ºè®®æĤ¨": 3529,
      "çł´åĿı": 3530,
      "çļĦçĿ¡çľł": 3531,
      "çŀ": 3532,
      "ä»Ķ": 3533,
      "çĹĩçĬ¶": 3534,
      "çļĦéľĢæ±Ĥ": 3535,
      "å½Ĵç±»ä¸º": 3536,
      "çļĦç¤¾ä¼ļ": 3537,
      "çļĦæłĩé¢ĺ": 3538,
      "ç¬¬ä¸ī": 3539,
      "çĿ£": 3540,
      "åī¯": 3541,
      "é¦Ī": 3542,
      "åĨľä¸ļ": 3543,
      "å°½åı¯èĥ½": 3544,
      "æĦŁåħ´è¶£": 3545,
      "çļĦä¸»è¦ģåĨħå®¹": 3546,
      "ä»ĸäºº": 3547,
      "åĴĮæĮĳæĪĺ": 3548,
      "çļĦä½¿çĶ¨": 3549,
      "Ġ3": 3550,
      "æĪ´": 3551,
      "åıĬåħ¶": 3552,
      "èĤº": 3553,
      "æĹ©é¤Ĳ": 3554,
      "ç»Ļå®ļçļĦæĸĩæľ¬": 3555,
      "åħħæ»¡äºĨ": 3556,
      "èĭ¥": 3557,
      "å¼±": 3558,
      "æľīæķĪåľ°": 3559,
      "åį«çĶŁ": 3560,
      "åĲī": 3561,
      "åĬ©æīĭ": 3562,
      "ä¾¿åĪ©": 3563,
      "æĳĺ": 3564,
      "æ·ĭ": 3565,
      "åĬŀåħ¬": 3566,
      "åĸľå¥½": 3567,
      "æ¡¥": 3568,
      "çļĦç©º": 3569,
      "ç´¯": 3570,
      "GP": 3571,
      "æīĢéľĢ": 3572,
      "é»Ħèī²": 3573,
      "ç¾İçļĦ": 3574,
      "çĻ¼": 3575,
      "æĢķ": 3576,
      "åİŁçĲĨ": 3577,
      "æŃĮæĽ²": 3578,
      "äºĶä¸ª": 3579,
      "éĿ¢ç§¯": 3580,
      "è¿Ľå±ķ": 3581,
      "åºĶè¯¥æĺ¯": 3582,
      "é¡¾å®¢": 3583,
      "éĩĮçļĦ": 3584,
      "æ²Ļæ»©": 3585,
      "æĢ§åĪ«": 3586,
      "è§Ħå®ļ": 3587,
      "çľĭåĪ°äºĨ": 3588,
      "å°±ä¸ļ": 3589,
      "Ġå°Ĩ": 3590,
      "çļĦæĶ¯": 3591,
      "æĪĺäºī": 3592,
      "åıĺæĪĲ": 3593,
      "ä¸ĢæĿ¯": 3594,
      "åģĩè®¾": 3595,
      "éĩĮæľī": 3596,
      "åº¦è¿ĩ": 3597,
      "çļĦæ·": 3598,
      "æģĴ": 3599,
      "æĪĳä»¬å°Ĩ": 3600,
      "é£ŁçĶ¨": 3601,
      "æ£Ģæµĭ": 3602,
      "èĸĦ": 3603,
      "å·®å¼Ĥ": 3604,
      "çļĦçŁ¥è¯Ĩ": 3605,
      "åľ¨æľªæĿ¥": 3606,
      "ãĢģâĢľ": 3607,
      "å²¸": 3608,
      "ä»°": 3609,
      "ä¹ĭå¤ĸ": 3610,
      "åĵ¦": 3611,
      "æ¸©å®¤æ°Ķä½ĵ": 3612,
      "æĻĤ": 3613,
      "åĲĪéĢĤçļĦ": 3614,
      "æĤ²": 3615,
      "åı¯ä»¥æıĲé«ĺ": 3616,
      "åī§æĥħ": 3617,
      "èĬ±åĽŃ": 3618,
      "éĿŀå¸¸éĩįè¦ģ": 3619,
      "åĲ¬è¯´": 3620,
      "æ±¤å§Ĩ": 3621,
      "çļĦæĻºèĥ½": 3622,
      "åŁĥ": 3623,
      "è£ħé¥°": 3624,
      "è§£éĩĬä¸Ģä¸ĭ": 3625,
      "åĲ¹": 3626,
      "ç¼ºä¹ı": 3627,
      "ä¸Ģéĥ¨": 3628,
      "æıĲéĨĴ": 3629,
      "ä¸ĵæ³¨": 3630,
      "ä¸ªæľĭåıĭ": 3631,
      "é¢Ħç®Ĺ": 3632,
      "è®¡ç®Ĺæľºç§ĳåŃ¦": 3633,
      "æµªè´¹": 3634,
      "è´¢åĬ¡": 3635,
      "çĪ¬": 3636,
      "ç»Ĩèĥŀ": 3637,
      "çĸ«èĭĹ": 3638,
      "éĽĦ": 3639,
      "è¯Ŀé¢ĺ": 3640,
      "åĨħå¿ĥ": 3641,
      "æīĢåľ¨": 3642,
      "éĻĦè¿ĳ": 3643,
      "ä¸»è§Ĵ": 3644,
      "æ¸¯": 3645,
      "åı¯éĿł": 3646,
      "çļĦæĮĩ": 3647,
      "æĦīæĤ¦": 3648,
      "æĺ¯æĪĳ": 3649,
      "æĹ¶åħī": 3650,
      "è®¾æĸ½": 3651,
      "èİ«": 3652,
      "æ¡£": 3653,
      "èİ·å¾ĹäºĨ": 3654,
      "å§ĵ": 3655,
      "åİ¨": 3656,
      "in": 3657,
      "ä¸ŃæĢ§": 3658,
      "éģĩåĪ°äºĨ": 3659,
      "åĵ²åŃ¦": 3660,
      "èĩªä¿¡": 3661,
      "ç»ĦåĲĪ": 3662,
      "åĴĮæ²»çĸĹ": 3663,
      "åľ¨è¿Ļ": 3664,
      "çĶµè¯Ŀ": 3665,
      "åĮĸåĴĮ": 3666,
      "çĽĴ": 3667,
      "æıĲåĩºäºĨ": 3668,
      "åĨįæ¬¡": 3669,
      "åĿĩåĮĢ": 3670,
      "æĪĲåĳĺ": 3671,
      "éħĴåºĹ": 3672,
      "æĺ¯ä¸ĢåĲį": 3673,
      "å®ŀæĸ½": 3674,
      "åĴĮä¸Ģä¸ª": 3675,
      "æł¹æį®ç»Ļå®ļçļĦæĸĩæľ¬": 3676,
      "åĴĮä¸į": 3677,
      "åıįé¦Ī": 3678,
      "é£ĺ": 3679,
      "æ°ı": 3680,
      "çļĦåģ¥åº·": 3681,
      "åĪĨæŀĲåĴĮ": 3682,
      "er": 3683,
      "çļĦå®īåħ¨": 3684,
      "è§Ĵåº¦": 3685,
      "ä¼Ł": 3686,
      "ä»¥ä¸ĭæĺ¯ä¸Ģéģĵ": 3687,
      "æĶ¶éĽĨ": 3688,
      "çĨĬçĮ«": 3689,
      "çĲĨè§£åĴĮ": 3690,
      "å¸¸å¸¸": 3691,
      "æľĢåĸľæ¬¢çļĦ": 3692,
      "æĻºæħ§": 3693,
      "éļĶ": 3694,
      "èĤ¯å®ļ": 3695,
      "ä¸Ĭè¿°": 3696,
      "èĦī": 3697,
      "ç¦»å¼Ģ": 3698,
      "çĹħäºº": 3699,
      "è¯·æıĲä¾Ľ": 3700,
      "èµĸ": 3701,
      "èĳ¡èĲ": 3702,
      "èĳ¡èĲĦ": 3703,
      "èı²": 3704,
      "ç¦ģ": 3705,
      "å°ıåŃ¦æķ°åŃ¦é¢ĺ": 3706,
      "ä¸ĢäºĽåħ³äºİ": 3707,
      "çĤ¸": 3708,
      "å¿§": 3709,
      "åħ¨éĿ¢": 3710,
      "ä½łè®¤ä¸º": 3711,
      "ä»¥ä¸ĭæĺ¯ä¸Ģéģĵå°ıåŃ¦æķ°åŃ¦é¢ĺ": 3712,
      "çļĦè¯Ńè¨Ģ": 3713,
      "ä¸įå¤ª": 3714,
      "èįīèİĵ": 3715,
      "çºłéĶĻ": 3716,
      "çķªèĮĦ": 3717,
      "æĪĲç»©": 3718,
      "æ¶īåıĬåĪ°": 3719,
      "ãĢĭãĢĤ": 3720,
      "äººåľ¨": 3721,
      "çĪ½": 3722,
      "å¤ªéĺ³èĥ½": 3723,
      "ä¼łè¾¾": 3724,
      "åı¯åĨįçĶŁèĥ½æºĲ": 3725,
      "å¤§æķ°æį®": 3726,
      "å®¤åĨħ": 3727,
      "çļĦåįķè¯į": 3728,
      "éĺ´": 3729,
      "åı¦ä¸Ģä¸ª": 3730,
      "å¯¹äººç±»": 3731,
      "åħĶ": 3732,
      "æµªæ¼«": 3733,
      "åĴĮåıĳå±ķ": 3734,
      "æĬ«èĲ¨": 3735,
      "åĪĻæĺ¯": 3736,
      "çŃīéĹ®é¢ĺ": 3737,
      "25": 3738,
      "åĶ¯": 3739,
      "åŃĹæ¯į": 3740,
      "æķ¦": 3741,
      "å½¢çĬ¶": 3742,
      "ç²Ĵ": 3743,
      "è¯¢éĹ®": 3744,
      "èĩªä¸»": 3745,
      "æįķ": 3746,
      "çı¾": 3747,
      "åĭķ": 3748,
      "æĲħ": 3749,
      "è®¾ç½®": 3750,
      "¹é¥": 3751,
      "èĮĥåĽ´åĨħ": 3752,
      "ar": 3753,
      "çļĦæĦıä¹ī": 3754,
      "åħįçĸ«": 3755,
      "çĶ·åŃ©": 3756,
      "åº¦åģĩ": 3757,
      "ä¹ĭå¤Ħ": 3758,
      "âĢĿãĢģâĢľ": 3759,
      "¹é¥ª": 3760,
      "ç´§å¼ł": 3761,
      "æĽ¾ç»ı": 3762,
      "å¤§å°ı": 3763,
      "èıľåĵģ": 3764,
      "å¿ł": 3765,
      "ä¹±": 3766,
      "çļĩ": 3767,
      "çļĦç»ĵæŀľ": 3768,
      "ä¼¼ä¹İ": 3769,
      "éĥ¨éĹ¨": 3770,
      "çķĻä¸ĭ": 3771,
      "æĤł": 3772,
      "æŀģç«¯": 3773,
      "om": 3774,
      "11": 3775,
      "çº·": 3776,
      "æĸ°åŀĭ": 3777,
      "éģŃ": 3778,
      "çļĦæł¸": 3779,
      "ç»¼åĲĪ": 3780,
      "å°Ĩå®ĥä»¬": 3781,
      "è¿Ļä¸¤ä¸ª": 3782,
      "æĸ¹éĿ¢çļĦ": 3783,
      "èĢĥè¯ķ": 3784,
      "çī©çĲĨåŃ¦": 3785,
      "ç»´çĶŁç´ł": 3786,
      "è¿Ļå®¶é¤Ĳåİħ": 3787,
      "æĮĩå®ļ": 3788,
      "çļĦç²¾": 3789,
      "è·¨": 3790,
      "å¢Ļ": 3791,
      "ä¸ºæĤ¨æıĲä¾Ľ": 3792,
      "è¿ħéĢŁ": 3793,
      "åĪºæ¿Ģ": 3794,
      "åıĤè§Ĥ": 3795,
      "çļĦæ¼Ķ": 3796,
      "æľīä¸Ģ": 3797,
      "æľīä¸ĢäºĽ": 3798,
      "çļĦç³ĸæŀľ": 3799,
      "ä¹Ķ": 3800,
      "æ¬§æ´²": 3801,
      "çļĦæ¶": 3802,
      "å¹´è½»çļĦ": 3803,
      "æī°": 3804,
      "å°±åı¯ä»¥": 3805,
      "åĪĨåŃĲ": 3806,
      "è¿Ķ": 3807,
      "åħĪçĶŁ": 3808,
      "è´´": 3809,
      "è·¯ä¸Ĭ": 3810,
      "çļĦä¸Ģæ®µ": 3811,
      "å°ıæĺİæīĭ": 3812,
      "éĿŀå¸¸æĦŁè°¢": 3813,
      "æ¸¸å®¢": 3814,
      "æľīçĤ¹": 3815,
      "çļĦæ²»": 3816,
      "çļĦæıĲ": 3817,
      "æī¬": 3818,
      "çļĦæŀ": 3819,
      "èĥ¡": 3820,
      "èĬĤçº¦": 3821,
      "åĨħéĥ¨": 3822,
      "ä¸ŃçļĦåºĶçĶ¨": 3823,
      "é¡ºåºı": 3824,
      "åħ´å¥ĭ": 3825,
      "ç¾Ĭ": 3826,
      "æĺ¥å¤©": 3827,
      "å¯¹æĸ¹": 3828,
      "ä¸ĭéĻį": 3829,
      "ä¸¾è¡Į": 3830,
      "çŃīå¾ħ": 3831,
      "è¯¥æĸĩæľ¬": 3832,
      "åĩºå¤Ħ": 3833,
      "GPT": 3834,
      "éĺ²æŃ¢": 3835,
      "å¤§çº¦": 3836,
      "è½¦è¾Ĩ": 3837,
      "å±ħæ°ĳ": 3838,
      "è¢ĸ": 3839,
      "æ¬²": 3840,
      "åĵĪåĪ©": 3841,
      "æĺ¯éĿŀå¸¸": 3842,
      "çģŃ": 3843,
      "åĮ»éĻ¢": 3844,
      "çĶµæ±ł": 3845,
      "è¦Ĩ": 3846,
      "ä¼ĺè´¨": 3847,
      "äº§çĶŁäºĨ": 3848,
      "ç´«": 3849,
      "åħ·å¤ĩ": 3850,
      "æĻ¨": 3851,
      "åħµ": 3852,
      "æĥ³æ³ķ": 3853,
      "æĲħæĭĮ": 3854,
      "å¾Īæľī": 3855,
      "åĬłä¸Ĭ": 3856,
      "å·¨å¤§çļĦ": 3857,
      "èĤ´": 3858,
      "è¯Ńæ°Ķ": 3859,
      "ä¾µ": 3860,
      "æµ·å¹³éĿ¢": 3861,
      "èİī": 3862,
      "çĶŁæĪĲä¸Ģç¯ĩ": 3863,
      "æľīçļĦ": 3864,
      "å¼Ģå¤´": 3865,
      "an": 3866,
      "å°ıæĿİ": 3867,
      "éĩįè§Ĩ": 3868,
      "è®¤çŁ¥": 3869,
      "è²Į": 3870,
      "èĴ¸": 3871,
      "åį°è±¡": 3872,
      "ç»Łè®¡": 3873,
      "åħħè¶³": 3874,
      "èĩªçĦ¶çģ¾å®³": 3875,
      "ä¸»è¦ģè§ĤçĤ¹": 3876,
      "èĤĮèĤī": 3877,
      "æī®": 3878,
      "æīĵå¼Ģ": 3879,
      "ä¸Ģåľº": 3880,
      "çļĦä¸Ģéĥ¨åĪĨ": 3881,
      "åį³ä½¿": 3882,
      "åħĭæľį": 3883,
      "èĬ³": 3884,
      "çļĦè¿ĲåĬ¨": 3885,
      "æĿ¥è§£åĨ³": 3886,
      "åŃĲéĩĮ": 3887,
      "çİ¯å¢ĥæ±¡æŁĵ": 3888,
      "çļĦæĬĢèĥ½": 3889,
      "æĸĩç«łä¸ŃçļĦ": 3890,
      "åĪĨå¸ĥ": 3891,
      "æĹ¶åĪ»": 3892,
      "çĮİ": 3893,
      "é¤Ĳé¦Ĩ": 3894,
      "Jo": 3895,
      "è¯·æıĲåıĸ": 3896,
      "æĪĳè§īå¾Ĺ": 3897,
      "éĽĨä¸Ń": 3898,
      "çľŁå®ŀ": 3899,
      "å½±åĥı": 3900,
      "è´¦": 3901,
      "æĮĩå¯¼": 3902,
      "çļĦåŁºç¡Ģ": 3903,
      "hon": 3904,
      "èĩªèº«": 3905,
      "ä½¿çĶ¨äºĨ": 3906,
      "æİĴåºı": 3907,
      "çĶµå½±çļĦ": 3908,
      "æ½ľåľ¨": 3909,
      "å¤ľæĻļ": 3910,
      "è¢«å¹¿æ³Ľ": 3911,
      "çłĶåıĳ": 3912,
      "æİĪ": 3913,
      "å½¼æŃ¤": 3914,
      "æĪĲè¯Ńåĩºå¤Ħ": 3915,
      "å¿ĥèĦı": 3916,
      "é»ĳèī²": 3917,
      "åĸ»": 3918,
      "å¿½": 3919,
      "å¤§èĦĳ": 3920,
      "åĩĨç¡®åľ°": 3921,
      "å¤ļæķ°": 3922,
      "åįģå¹´": 3923,
      "èĢĮæĺ¯": 3924,
      "é¡µ": 3925,
      "æĴ°": 3926,
      "çļĦæİªæĸ½": 3927,
      "ãĢĭï¼Į": 3928,
      "æĤ¬": 3929,
      "è¶ħå¸Ĥ": 3930,
      "ä¿¡ä»»": 3931,
      "çļĦè®¾è®¡": 3932,
      "ç®Ģæ´ģæĺİäºĨ": 3933,
      "çļĦä»»åĬ¡": 3934,
      "ä½ľä¸ºä¸Ģä¸ª": 3935,
      "16": 3936,
      "è¾ħåĬ©": 3937,
      "æľĢé«ĺ": 3938,
      "äººä»¬çļĦ": 3939,
      "æĪĳæĺ¯": 3940,
      "åĨ¬åŃ£": 3941,
      "æĽ´å¿«": 3942,
      "åıªèĥ½": 3943,
      "éĩįå¤§": 3944,
      "æĬ½åıĸåĩº": 3945,
      "çļĦæľįåĬ¡": 3946,
      "çļĦé¢ľèī²": 3947,
      "ç¬¬ä¸Ģä¸ª": 3948,
      "æľĢå¤§çļĦ": 3949,
      "å¿ĥçĲĨåģ¥åº·": 3950,
      "çĶĺ": 3951,
      "å¯Ĩçłģ": 3952,
      "çļĦå°ıè¯´": 3953,
      "äººä½ĵ": 3954,
      "å®£å¸ĥ": 3955,
      "ä¸¤ç§į": 3956,
      "ç£¨": 3957,
      "éĢ²": 3958,
      "äººåı£": 3959,
      "èį·": 3960,
      "åĬ¨åĬĽ": 3961,
      "çº¤": 3962,
      "è¿ĳå¹´æĿ¥": 3963,
      "ħåĬĽ": 3964,
      "åĽ¾ä¹¦": 3965,
      "çİ©å®¶": 3966,
      "æĽ´å®¹æĺĵ": 3967,
      "ç¢İ": 3968,
      "åŁ¹åħ»": 3969,
      "çĲ´": 3970,
      "åħ¬éĩĮ": 3971,
      "æĸĩæĺİ": 3972,
      "èĢį": 3973,
      "éķ¿æĹ¶éĹ´": 3974,
      "æĽ¼": 3975,
      "çļĦæ¬": 3976,
      "ä½ľå®¶": 3977,
      "äºĨå¾Īå¤ļ": 3978,
      "åı¤èĢģ": 3979,
      "éĺ»": 3980,
      "èĮ¨": 3981,
      "åŃĺåĤ¨": 3982,
      "åĩ½": 3983,
      "è¿Ľè¡Įæĳĺè¦ģ": 3984,
      "åŃĲåĴĮ": 3985,
      "æĢ»çļĦ": 3986,
      "çļĦæ²»çĸĹ": 3987,
      "æŀĦå»º": 3988,
      "å¹¶ä¸º": 3989,
      "è§Ĩä¸º": 3990,
      "æĿİæĺİ": 3991,
      "å¾Īå¤§": 3992,
      "å°ıçĮ«": 3993,
      "éł": 3994,
      "èıĮ": 3995,
      "èĤ¡ç¥¨": 3996,
      "ä½łè§īå¾Ĺ": 3997,
      "æĪĳæ²¡æľī": 3998,
      "ä¸Ģåħ±æľī": 3999,
      "æıĲç¤º": 4000,
      "çļĦæł¸å¿ĥ": 4001,
      "åħ¬æŃ£": 4002,
      "çļĦç½ĳ": 4003,
      "è®¡ç®Ĺæľºè§Ĩè§ī": 4004,
      "çŁ¿": 4005,
      "çļĦæ¦Ĥå¿µ": 4006,
      "åĴª": 4007,
      "åħ¬åĽŃéĩĮ": 4008,
      "çļĦæ¢": 4009,
      "åĲįä¸º": 4010,
      "éĺµ": 4011,
      "hn": 4012,
      "ä¸ĭéĽ¨": 4013,
      "é¢ĨåŁŁçļĦ": 4014,
      "æĶ»åĩ»": 4015,
      "ç¨İ": 4016,
      "æĺİçĻ½": 4017,
      "æĪĸåħ¶ä»ĸ": 4018,
      "çº¹": 4019,
      "åı¯ä»¥å°Ĩ": 4020,
      "æ¯ķ": 4021,
      "å¾ªçİ¯": 4022,
      "åĴĮåºĶçĶ¨": 4023,
      "æİĺ": 4024,
      "åıĸåĨ³": 4025,
      "èĩ³åħ³": 4026,
      "ä¼¯": 4027,
      "æł¹æį®ç»Ļå®ļ": 4028,
      "çļĦçĶŁæ´»æĸ¹å¼ı": 4029,
      "åıĸåĨ³äºİ": 4030,
      "çļĦç¾İé£Ł": 4031,
      "åŃĹç¬¦": 4032,
      "è§Ĵèī²ä¿¡æģ¯": 4033,
      "åĲĦåľ°": 4034,
      "åĴĮå®īåħ¨": 4035,
      "ä¸ºä½ł": 4036,
      "æ²¿": 4037,
      "çļĦäº§åĵģ": 4038,
      "å°½éĩı": 4039,
      "çĽ¾": 4040,
      "Ã·": 4041,
      "æ¼Ĥäº®": 4042,
      "ç»ıçĲĨ": 4043,
      "æ¢ħ": 4044,
      "æĪĳä»¬çļĦçĶŁæ´»": 4045,
      "çĳŀ": 4046,
      "è½¬åĮĸ": 4047,
      "å§Ķ": 4048,
      "çģ°": 4049,
      "åĽŀçŃĶè¿Ļä¸ªéĹ®é¢ĺ": 4050,
      "ç»ĵæĿŁ": 4051,
      "000": 4052,
      "åķĨåĬ¡": 4053,
      "è±ª": 4054,
      "John": 4055,
      "ä¿Ŀéļľ": 4056,
      "å¤§éĩıçļĦ": 4057,
      "çĽĳçĿ£": 4058,
      "çļĦåŁºæľ¬": 4059,
      "åĲĽ": 4060,
      "æĳĨ": 4061,
      "æĢ»çļĦæĿ¥è¯´": 4062,
      "è¯ķåĽ¾": 4063,
      "ä»·åĢ¼è§Ĥ": 4064,
      "è¯¸": 4065,
      "ä»¥æĿ¥": 4066,
      "èº«ä»½": 4067,
      "èµ¢å¾Ĺ": 4068,
      "ç¼ºçĤ¹": 4069,
      "éĢĬ": 4070,
      "çļĦæ½": 4071,
      "æĭĵ": 4072,
      "äº§åĵģçļĦ": 4073,
      "çļĦçľĭ": 4074,
      "åıĳæĺİ": 4075,
      "æĢİæł·": 4076,
      "è¯ģæį®": 4077,
      "è¿Ļç¯ĩæĸĩç«łä¸Ń": 4078,
      "ä»Ĭå¹´": 4079,
      "åı¯ä»¥æł¹æį®": 4080,
      "èĻİ": 4081,
      "é¸£": 4082,
      "çļĦåĲ«ä¹ī": 4083,
      "åĭĩæ°Ķ": 4084,
      "é²ģ": 4085,
      "ä¹ŁéľĢè¦ģ": 4086,
      "ä¸ªæĢ§åĮĸ": 4087,
      "ä¸Ģä»¶": 4088,
      "åį§": 4089,
      "åıĤèĢĥ": 4090,
      "æĺ¯åħ³äºİ": 4091,
      "èģĺ": 4092,
      "èİ±": 4093,
      "çłĶç©¶è¡¨æĺİ": 4094,
      "ç»´æĮģ": 4095,
      "åľĪ": 4096,
      "çļĦåıĺåĮĸ": 4097,
      "çĬ¯ç½ª": 4098,
      "è®¸å¤ļäºº": 4099,
      "éĩĮéĿ¢": 4100,
      "æľīæķĪçļĦ": 4101,
      "å¿ĥåĴĮ": 4102,
      "è£Ļ": 4103,
      "ä»İè¿Ļç¯ĩæĸĩç«łä¸ŃæıĲåıĸåĩº": 4104,
      "ce": 4105,
      "åı¯ä»¥éĢīæĭ©": 4106,
      "æŁ¥è¯¢": 4107,
      "å§¿": 4108,
      "çİ©èĢį": 4109,
      "AIæĬĢæľ¯": 4110,
      "èĢħçļĦ": 4111,
      "ä»ª": 4112,
      "å¹½": 4113,
      "æľªçŁ¥": 4114,
      "ä¼¦æķ¦": 4115,
      "å¥½å¤Ħ": 4116,
      "æĥ³è±¡": 4117,
      "ä¼Ļ": 4118,
      "ä¸įè¶³": 4119,
      "le": 4120,
      "å°ıåįİ": 4121,
      "åį°åº¦": 4122,
      "æŁĶè½¯": 4123,
      "ä½Ĩä»ĸ": 4124,
      "éĤĢ": 4125,
      "çĽĳæµĭ": 4126,
      "åĪļåĪļ": 4127,
      "æĻĴ": 4128,
      "ä¸ĵå®¶": 4129,
      "çļĦçĸ": 4130,
      "æĢª": 4131,
      "å°±ä¼ļ": 4132,
      "çºłæŃ£": 4133,
      "è°Ĭ": 4134,
      "æĥħæĦŁåĪĨæŀĲ": 4135,
      "Ġå¥½çļĦ": 4136,
      "åĴĮæľįåĬ¡": 4137,
      "åĲĮåŃ¦": 4138,
      "ä¸İåħ¶ä»ĸ": 4139,
      "çļĦåĬ¨çī©": 4140,
      "èĬĿ": 4141,
      "ç¡®å®ŀ": 4142,
      "è¯Ńåı¥": 4143,
      "æĿİåĽĽ": 4144,
      "æĺ¯æľĢ": 4145,
      "éĻ·": 4146,
      "èĢĮè¨Ģ": 4147,
      "æ°¸è¿ľ": 4148,
      "åĸľçĪ±": 4149,
      "çļĦåħ·ä½ĵ": 4150,
      "äºĭæķħ": 4151,
      "çļĦæĢģ": 4152,
      "çļĦé£İæł¼": 4153,
      "éĺĶ": 4154,
      "ä»¥ä¸ĭæ®µèĲ½": 4155,
      "éĩĩåıĸæİªæĸ½": 4156,
      "æ¥ļ": 4157,
      "åĩºè¡Į": 4158,
      "çļĦæĥħåĨµä¸ĭ": 4159,
      "è¶³å¤ŁçļĦ": 4160,
      "è¡«": 4161,
      "åħ³éĶ®åŃĹ": 4162,
      "å¹´è½»äºº": 4163,
      "åĴĮè°": 4164,
      "è´Łè´£": 4165,
      "èħĲ": 4166,
      "æĽ´ä¸º": 4167,
      "æª¬": 4168,
      "åĽłä¸ºå®ĥä»¬": 4169,
      "åŀĥåľ¾åĪĨç±»": 4170,
      "çļĦæĶ¯æĮģ": 4171,
      "è¯ģæĺİ": 4172,
      "çİ©åħ·": 4173,
      "æŁ¥çľĭ": 4174,
      "çļĦè¿ĩç¨ĭ": 4175,
      "ç¢į": 4176,
      "å¤§åŀĭ": 4177,
      "è®¿éĹ®": 4178,
      "æģĭ": 4179,
      "æŃ»äº¡": 4180,
      "åıĸå¾ĹäºĨ": 4181,
      "æĪĳæĥ³çŁ¥éģĵ": 4182,
      "å²©": 4183,
      "äººå£«": 4184,
      "łæª¬": 4185,
      "æīĭæ®µ": 4186,
      "åīª": 4187,
      "æľīçĽĬ": 4188,
      "çļĦæĥħç»ª": 4189,
      "çļ®èĤ¤": 4190,
      "è¿ĲçĶ¨": 4191,
      "ä¸Ģæ®µæĸĩæľ¬": 4192,
      "ç®Ģçº¦": 4193,
      "ä¿Ĺ": 4194,
      "æĭĶ": 4195,
      "è¿Ļæ¬¡": 4196,
      "æŀĿ": 4197,
      "åĩ¡": 4198,
      "åľ°ä¸Ĭ": 4199,
      "åŁİå¸ĤçļĦ": 4200,
      "èĴĤ": 4201,
      "çļĦçĬ": 4202,
      "è¢«ç§°ä¸º": 4203,
      "è¿ĻæĦıåĳ³çĿĢ": 4204,
      "å½±çīĩ": 4205,
      "æŃ£å¼ı": 4206,
      "åİĺ": 4207,
      "åŁ¹è®Ń": 4208,
      "å¤ļæł·æĢ§": 4209,
      "å±±å³°": 4210,
      "åĢĴåħ¥": 4211,
      "ç¼ĸåĨĻä¸Ģä¸ª": 4212,
      "è°ĥåĳ³": 4213,
      "æł¹æį®ä»¥ä¸ĭæĸĩæľ¬": 4214,
      "äº§ä¸ļ": 4215,
      "å°ıæĺİåĴĮ": 4216,
      "æµģç¨ĭ": 4217,
      "å®ŀçĶ¨": 4218,
      "Ġ1": 4219,
      "éķ¿çļĦ": 4220,
      "æłĩçŃ¾": 4221,
      "çļĦçľĭæ³ķ": 4222,
      "æĳĩ": 4223,
      "åı¯èĥ½å¯¼èĩ´": 4224,
      "å±ı": 4225,
      "è§Ĥçľĭ": 4226,
      "çĽŁ": 4227,
      "ä¸ģ": 4228,
      "å¹´ä»£": 4229,
      "çļĦçĭĹ": 4230,
      "çĭĹçĭĹ": 4231,
      "æī®æ¼Ķ": 4232,
      "è£ģ": 4233,
      "æİ¢éĻ©": 4234,
      "æĦŁåĪ°éĿŀå¸¸": 4235,
      "âĢĿãĢĤ</": 4236,
      "åĭĩæķ¢": 4237,
      "æĬĢæľ¯åĴĮ": 4238,
      "æĪĳä¸į": 4239,
      "çĶ·åŃĲ": 4240,
      "æ£ī": 4241,
      "ç©Ĩ": 4242,
      "æĶ¶åħ¥": 4243,
      "çĽ¸åıį": 4244,
      "äº¤äºĴ": 4245,
      "èĴľ": 4246,
      "å¼ķåıĳ": 4247,
      "çĸĳéĹ®": 4248,
      "èıľèĤ´": 4249,
      "æĪĲåĬŁçļĦ": 4250,
      "æŁ¥æī¾": 4251,
      "åľºæīĢ": 4252,
      "ç§Ł": 4253,
      "æ²Ļæĭī": 4254,
      "åĪ©çĽĬ": 4255,
      "åİŁæĸĩ": 4256,
      "ä¸»äººåħ¬": 4257,
      "çĥ¹é¥ª": 4258,
      "çļĦæĬķ": 4259,
      "å±ķå¼Ģ": 4260,
      "ĽçĽ¾": 4261,
      "æŃ£å¸¸": 4262,
      "èĢģæĿ¿": 4263,
      "å®ŀæĹ¶": 4264,
      "\"</": 4265,
      "çģµæ´»": 4266,
      "å¿ħè¦ģçļĦ": 4267,
      "èĬĤæĹ¥": 4268,
      "ä¸įè¶ħè¿ĩ": 4269,
      "åľ¨ä¸ŃåĽ½": 4270,
      "æĺ¾èĳĹ": 4271,
      "ä¸Ģå¹´": 4272,
      "æĪĲæŀľ": 4273,
      "çļĦæ¸¸æĪı": 4274,
      "æµ·å¹³éĿ¢ä¸Ĭåįĩ": 4275,
      "å¢¨": 4276,
      "è·ĥ": 4277,
      "ä¾Ŀèµĸ": 4278,
      "å½ĵæĹ¶": 4279,
      "åĲĮæł·": 4280,
      "çļĦçĽ®æłĩ": 4281,
      "åĮ¹": 4282,
      "åºĨç¥Ŀ": 4283,
      "çļĦæ³ķ": 4284,
      "åĴĮæ°´": 4285,
      "ä»İè¿Ļç¯ĩæĸĩç«łä¸ŃæıĲåıĸ": 4286,
      "ä¹Łä¸į": 4287,
      "çĭ®": 4288,
      "å·¥ç¨ĭå¸Ī": 4289,
      "æĳ©": 4290,
      "17": 4291,
      "æĺĵæĩĤ": 4292,
      "çļĦçī¹çĤ¹": 4293,
      "èģĮä½į": 4294,
      "å¤®": 4295,
      "å¿ĥæĢģ": 4296,
      "éĩİçĶŁ": 4297,
      "æģ¢": 4298,
      "æ³¢çī¹": 4299,
      "çļĦæģ": 4300,
      "æĹłéĻĲ": 4301,
      "æ¸ħæĸ°": 4302,
      "ä¸Ńæľī": 4303,
      "åı¯ä»¥èĢĥèĻĳ": 4304,
      "çļĦæ¢¦": 4305,
      "åĪĺ": 4306,
      "çŁ¥åĲį": 4307,
      "çļĦçľŁ": 4308,
      "äºĮæ°§åĮĸ": 4309,
      "å¦Ĥæŀľä½łåĸľæ¬¢": 4310,
      "çļĦä¸ĢäºĽ": 4311,
      "è¿«": 4312,
      "è°ĵè¯Ń": 4313,
      "åģļå¥½": 4314,
      "çļĦæ¨": 4315,
      "å·¥èīº": 4316,
      "å°¿": 4317,
      "æ¶µçĽĸ": 4318,
      "ä¸ªæ©ĻåŃĲ": 4319,
      "æıŃ": 4320,
      "è®¤çľŁ": 4321,
      "éĥ½åľ¨": 4322,
      "ä»Ļ": 4323,
      "åı¯ä»¥çĶ¨": 4324,
      "æ³ķè§Ħ": 4325,
      "ä¸įæĸŃåľ°": 4326,
      "åħ¶ä¸ŃåĮħæĭ¬": 4327,
      "å¤§å¤ļæķ°": 4328,
      "èİİ": 4329,
      "æ·±è¿ľ": 4330,
      "èŃ¦å¯Ł": 4331,
      "æī¾åĪ°äºĨ": 4332,
      "éĹ®é¢ĺçļĦ": 4333,
      "æĭħå¿ĥ": 4334,
      "åĲĪçī©": 4335,
      "å¦Ĥä½ķåľ¨": 4336,
      "é²¸": 4337,
      "åıĭè°Ĭ": 4338,
      "åĿĢ": 4339,
      "äººç±»æ´»åĬ¨": 4340,
      "æ®ĸ": 4341,
      "æĻºèĥ½æīĭæľº": 4342,
      "è¢«è®¤ä¸ºæĺ¯": 4343,
      "ä¸Ģç³»åĪĹ": 4344,
      "ä¹°äºĨ": 4345,
      "ä½ĵéĩį": 4346,
      "åıĹæ¬¢è¿İçļĦ": 4347,
      "ç«¹": 4348,
      "èĤł": 4349,
      "çļĦæŃ£": 4350,
      "éĩĬæĶ¾": 4351,
      "é¸¡èĤī": 4352,
      "çļĦæĽ": 4353,
      "çļĦä¸»æĹ¨": 4354,
      "å¦ĩ": 4355,
      "å°Ĩä»¥ä¸ĭåı¥åŃĲ": 4356,
      "éĺ¶æ®µ": 4357,
      "èĤĸ": 4358,
      "æĦıè¯ĨåĪ°": 4359,
      "è¦ģçĤ¹": 4360,
      "å°Ĭæķ¬": 4361,
      "åŃ¦ç§ĳ": 4362,
      "ç¡®è®¤": 4363,
      "æĬĳ": 4364,
      "ä¼¦çĲĨ": 4365,
      "åĴĮæĶ¯æĮģ": 4366,
      "åĢ¼å¾Ĺä¸Ģ": 4367,
      "æĺ¯åĲ¦æľī": 4368,
      "çļĦä¸ĸçķĮ": 4369,
      "çĩķ": 4370,
      "ä½łåľ¨": 4371,
      "æŁłæª¬": 4372,
      "æĦŁæŁĵ": 4373,
      "åĲĥäºĨ": 4374,
      "æĥľ": 4375,
      "å¼Ģå¿ĥ": 4376,
      "åĩ½æķ°": 4377,
      "çļĦç¥ŀ": 4378,
      "2021": 4379,
      "éĥ½åı¯ä»¥": 4380,
      "æľĢéĩįè¦ģ": 4381,
      "å¥½çľĭ": 4382,
      "é¸Ń": 4383,
      "çº¤ç»´": 4384,
      "çļĦçĮ": 4385,
      "ä¼ļå¯¼èĩ´": 4386,
      "çļĦæ¶Ī": 4387,
      "è½»è½»": 4388,
      "è¶ĬæĿ¥è¶Ĭå¤ļ": 4389,
      "å·²ç»ıæĪĲä¸º": 4390,
      "åĽ¾åĥıè¯ĨåĪ«": 4391,
      "æĻ®éĢļ": 4392,
      "æİ¨æĸŃ": 4393,
      "å¼Ł": 4394,
      "å¯¼æ¼Ķ": 4395,
      "éĻ¤ä»¥": 4396,
      "ç»ĻäºĨ": 4397,
      "ä¸ľäº¬": 4398,
      "æĶ¯éĵħç¬Ķ": 4399,
      "è·¯çº¿": 4400,
      "æĽ¿ä»£": 4401,
      "èĴĻ": 4402,
      "èģļä¼ļ": 4403,
      "é¸Łç±»": 4404,
      "æŃĮè¯į": 4405,
      "æĪĳä¹Ł": 4406,
      "èıľåįķ": 4407,
      "å¾Ĵ": 4408,
      "å°Ĩä»¥ä¸ĭæĸĩæľ¬": 4409,
      "éģµå®Ī": 4410,
      "è¿Ł": 4411,
      "å®ĹæķĻ": 4412,
      "60": 4413,
      "è¯¥åħ¬åı¸": 4414,
      "é£Łè°±": 4415,
      "æĦ¿æĦı": 4416,
      "æµ·è¾¹": 4417,
      "éľľ": 4418,
      "éģİ": 4419,
      "æĽ´æľī": 4420,
      "çļĦæĳĦ": 4421,
      "åľ¨å®¶éĩĮ": 4422,
      "éĻª": 4423,
      "åĸľæ¬¢åĲĥ": 4424,
      "åĪł": 4425,
      "æķĪçİĩåĴĮ": 4426,
      "è´§å¸ģ": 4427,
      "æĮĤ": 4428,
      "æĿ¥å®ŀçİ°": 4429,
      "æĲº": 4430,
      "ä¹ĭéĹ´çļĦåħ³ç³»": 4431,
      "åľ¨è¿ĩåİ»": 4432,
      "çļĦæ½ľ": 4433,
      "æııç»ĺ": 4434,
      "40": 4435,
      "æĭľ": 4436,
      "åĢį": 4437,
      "çļĦæ·±": 4438,
      "ä¸ĢåĢĭ": 4439,
      "è¯»ä¹¦": 4440,
      "çļĦæİĴ": 4441,
      "çĽĳç®¡": 4442,
      "éģĵè·¯": 4443,
      "åĪĢ": 4444,
      "éĨī": 4445,
      "åĽŀå¿Ĩ": 4446,
      "æĽ´æĸ°": 4447,
      "è´¸": 4448,
      "ç¤¼çī©": 4449,
      "ä¿ĿæĮģåģ¥åº·": 4450,
      "æ´ª": 4451,
      "èĻļæĭŁçİ°å®ŀ": 4452,
      "äºĭä¸ļ": 4453,
      "åį«æĺŁ": 4454,
      "åĴĮè°Ĳ": 4455,
      "äºĮæ°§åĮĸç¢³": 4456,
      "ä½łä¼ļ": 4457,
      "æľºåĪ¶": 4458,
      "æĤī": 4459,
      "ä¸Ģå¼ł": 4460,
      "çļĦçĪ±æĥħ": 4461,
      "èĭ±æĸĩ": 4462,
      "æİĴåĪĹ": 4463,
      "æĪĲä¸Ģä¸ª": 4464,
      "åĽ¾ä¹¦é¦Ĩ": 4465,
      "çļĦå¤ĸ": 4466,
      "æ¡ĥ": 4467,
      "çŃĶæ¡Īæĺ¯": 4468,
      "å°ıé¸Ł": 4469,
      "\"ï¼Į": 4470,
      "åĪĹä¸¾": 4471,
      "çİĩåĴĮ": 4472,
      "åĭĴ": 4473,
      "æĹłäºº": 4474,
      "çļĦä¸į": 4475,
      "æł¹æį®è¾ĵåħ¥": 4476,
      "ä»ĭç»įä¸Ģä¸ĭ": 4477,
      "ä¿ĿéĻ©": 4478,
      "éĿ¢æĸĻ": 4479,
      "ä»ĸæĥ³": 4480,
      "äºĴçĽ¸": 4481,
      "è®©äººä»¬": 4482,
      "å°ıæĺİå®¶": 4483,
      "ä¸²": 4484,
      "çļĦæŁ": 4485,
      "å¾Īå¥½çļĦ": 4486,
      "è¯·çĶ¨": 4487,
      "çļĦåħ³ç³»": 4488,
      "å¯¹åħ¶": 4489,
      "çļĦæŃ¥": 4490,
      "åķĨåºĹ": 4491,
      "èĥ½åĬĽåĴĮ": 4492,
      "ä¸ĢçĽ´åľ¨": 4493,
      "ä»İä»¥ä¸ĭ": 4494,
      "å°½åĬĽ": 4495,
      "åĪĩæĪĲ": 4496,
      "åľ°çĲĥçļĦ": 4497,
      "çĬ¹": 4498,
      "æĿİåįİ": 4499,
      "å°ıæľĭåıĭ": 4500,
      "çĶ·æĢ§": 4501,
      "å¦Īå¦Ī": 4502,
      "åĵªç§į": 4503,
      "æĬĵ": 4504,
      "é¢ĨåŁŁä¸Ń": 4505,
      "çļĦé«ĺ": 4506,
      "éªĮè¯ģ": 4507,
      "ä»ĸä»¬åľ¨": 4508,
      "å£¤": 4509,
      "è¯´è¯Ŀ": 4510,
      "èĥ¸": 4511,
      "çĻ½èī²": 4512,
      "åħīçº¿": 4513,
      "å°±åĥı": 4514,
      "èĬĴ": 4515,
      "æģ¢å¤į": 4516,
      "ä¸§": 4517,
      "åıĭå¥½": 4518,
      "æĻ®éģį": 4519,
      "ä»¿ä½Ľ": 4520,
      "éĺĲ": 4521,
      "ç§įæ¤į": 4522,
      "åĪ«äºº": 4523,
      "çĶŁæĪĲæĳĺè¦ģ": 4524,
      "æ¯ĶèµĽä¸Ń": 4525,
      "äººå·¥æĻºèĥ½çļĦåıĳå±ķ": 4526,
      "åĪĽä¸ļ": 4527,
      "ï¼ļ\"": 4528,
      "ä¸¦": 4529,
      "åıªè¦ģ": 4530,
      "æĺ¯å¤ļå°ĳ": 4531,
      "æłĩå¿Ĺ": 4532,
      "æħ¢æħ¢": 4533,
      "æ¦Ĥè¿°": 4534,
      "è¿Ĳè¡Į": 4535,
      "æ¢¦æĥ³": 4536,
      "åĴĮæľĭåıĭ": 4537,
      "çº½çº¦å¸Ĥ": 4538,
      "æĪĳéĿŀå¸¸": 4539,
      "æĺ¯å¦Ĥä½ķ": 4540,
      "çļĦæľºä¼ļ": 4541,
      "çĭĤ": 4542,
      "åĲĮäºĭ": 4543,
      "å®¿": 4544,
      "æĺ¯åĽłä¸º": 4545,
      "ç¾¤ä½ĵ": 4546,
      "Tom": 4547,
      "åĬĽåŃ¦": 4548,
      "ä¼¤å®³": 4549,
      "åĬłéĢŁ": 4550,
      "æĺ¯ä¸į": 4551,
      "æĿĥåĪ©": 4552,
      "æĻºèĥ½åĮĸ": 4553,
      "æ·ĩ": 4554,
      "æĵİ": 4555,
      "å¯¸": 4556,
      "ä½łå¯¹": 4557,
      "å®Įç¾İ": 4558,
      "çĥŃæĥħ": 4559,
      "ä¿¡ä»°": 4560,
      "åįľ": 4561,
      "æĽ´é«ĺ": 4562,
      "å¦Ĥæŀľä½łæĥ³": 4563,
      "åĭ¤": 4564,
      "æ³Ĭ": 4565,
      "è¿Ļæĺ¯ä¸Ģç¯ĩ": 4566,
      "åħ¬ä¼Ĺ": 4567,
      "èº«ä½ĵåĴĮ": 4568,
      "ç¨®": 4569,
      "è¯ĨåĪ«åĩº": 4570,
      "å°ĳå¹´": 4571,
      "æľºåĻ¨åŃ¦ä¹łç®Ĺæ³ķ": 4572,
      "æĮĩçļĦæĺ¯": 4573,
      "åħ¶å®ŀ": 4574,
      "NA": 4575,
      "é£ŀæľº": 4576,
      "è½¨": 4577,
      "è®²è¿°äºĨä¸Ģä¸ª": 4578,
      "çļĦä½įç½®": 4579,
      "åħļ": 4580,
      "å¯Įæľī": 4581,
      "èĥľåĪ©": 4582,
      "ä¾ĽåºĶ": 4583,
      "è¿Ļæł·çļĦ": 4584,
      "èĢĢ": 4585,
      "çļĦç¼ĸ": 4586,
      "24": 4587,
      "ä½¿çĶ¨çļĦ": 4588,
      "ä¸Ĭæĸĩ": 4589,
      "çļĦæ¯ı": 4590,
      "li": 4591,
      "åľ¨è¿ĻéĩĮ": 4592,
      "åĲįè¯įçŁŃè¯Ń": 4593,
      "å«Į": 4594,
      "æĸ°éĹ»æĸĩç«ł": 4595,
      "è¿Ļåıª": 4596,
      "åıĸä»£": 4597,
      "æ·ĩæ·ĭ": 4598,
      "å¹¿æ³ĽåºĶçĶ¨": 4599,
      "å°ĺ": 4600,
      "æĹģ": 4601,
      "å®¶åħ·": 4602,
      "åĨ°æ·ĩæ·ĭ": 4603,
      "è¯ķè¯ķ": 4604,
      "ãĢĤ'": 4605,
      "ä¸įæĸŃåıĳå±ķ": 4606,
      "éĩĩåıĸè¡ĮåĬ¨": 4607,
      "å°½å¿«": 4608,
      "å¹¶å°Ĩåħ¶": 4609,
      "å§ĵåĲį": 4610,
      "çļĦæ£": 4611,
      "ä¼ĺæĥł": 4612,
      "ä¸įéľĢè¦ģ": 4613,
      "åĬĽäºİ": 4614,
      "çĤ¹ç¬¦åı·": 4615,
      "ä¾§": 4616,
      "åĴĮå·¥ä½ľ": 4617,
      "çļĦçĻ": 4618,
      "å¼Ĺ": 4619,
      "è¿Ļå°Ĩ": 4620,
      "ç®Ģä»ĭ": 4621,
      "åĪ·": 4622,
      "è°ĥèĬĤ": 4623,
      "å¹¶ä¸įæĺ¯": 4624,
      "çĽĹ": 4625,
      "åľ°éľĩ": 4626,
      "æıĲä¾ĽçļĦ": 4627,
      "ä¹Į": 4628,
      "çļĦçľ¼": 4629,
      "åĴĮå¹³": 4630,
      "æ¶Ĥ": 4631,
      "å¯¹è±¡": 4632,
      "çĮª": 4633,
      "æı´": 4634,
      "é¬": 4635,
      "æ®ĭ": 4636,
      "ä¸Ģçīĩ": 4637,
      "å¼ķæĵİ": 4638,
      "çĽ®çļĦæĺ¯": 4639,
      "ç±»åŀĭçļĦ": 4640,
      "èĺ": 4641,
      "æĶ¾å¼ĥ": 4642,
      "æ·±åĳ¼åĲ¸": 4643,
      "æľĢæĸ°çļĦ": 4644,
      "14": 4645,
      "åħĶåŃĲ": 4646,
      "è¯·å¯¹": 4647,
      "è§ĦèĮĥ": 4648,
      "åİŁåĪĻ": 4649,
      "å¼ķåĬĽ": 4650,
      "åĽ½åĨħ": 4651,
      "æĥħæĦŁåĪĨç±»": 4652,
      "è¿Ļæ®µæĸĩåŃĹ": 4653,
      "æİ¥çĿĢ": 4654,
      "çļĦè¯ĹæŃĮ": 4655,
      "æĪĳå°Ĩ": 4656,
      "æĽ´å¥½åľ°çĲĨè§£": 4657,
      "åı£è¯Ń": 4658,
      "è´«": 4659,
      "Ġ5": 4660,
      "åıĳåĩº": 4661,
      "å¤©çĦ¶": 4662,
      "çļĦè´¨éĩı": 4663,
      "å¹¶å°Ĩ": 4664,
      "æĹ¥å¸¸çĶŁæ´»": 4665,
      "é»ĳæļĹ": 4666,
      "æĺ¯æĪĳä»¬": 4667,
      "ä½łæľīä»Ģä¹Ī": 4668,
      "ä¸ĢåĪĩ": 4669,
      "ä¿®æŃ£": 4670,
      "å°¼åħĭ": 4671,
      "åİĭåĬĽåĴĮ": 4672,
      "è¿ĺèĥ½": 4673,
      "æĤ¨å¥½": 4674,
      "å¥Ķ": 4675,
      "æī©å¤§": 4676,
      "å¹¶ç»Ļåĩº": 4677,
      "äº¤éĢļå·¥åħ·": 4678,
      "ä¹Łå°±æĺ¯": 4679,
      "æĶ¹ä¸º": 4680,
      "å£ģ": 4681,
      "åľ¨æŃ¤": 4682,
      "åĩĨç¡®æĢ§": 4683,
      "è½¬æį¢ä¸º": 4684,
      "ç¥ŀç§ĺçļĦ": 4685,
      "åºĦ": 4686,
      "ä»¥ä¸ĭéĹ®é¢ĺ": 4687,
      "æĺ¯ä¸ª": 4688,
      "æĢİä¹Īæł·": 4689,
      "å¯¿åĳ½": 4690,
      "ä¼¸": 4691,
      "çĥ¦": 4692,
      "åģıå¥½": 4693,
      "ãĢĮ": 4694,
      "åĮºåĪ«": 4695,
      "æī£": 4696,
      "æīĭæľ¯": 4697,
      "æ¶ĪèĢĹ": 4698,
      "åŃĶ": 4699,
      "çīĪæľ¬": 4700,
      "ï¼ļ'": 4701,
      "åĴĮåĪĨæŀĲ": 4702,
      "æĦıå¤§åĪ©éĿ¢": 4703,
      "æİ¨èįĲä¸ĢäºĽ": 4704,
      "éħª": 4705,
      "æııè¿°ä¸Ģä¸ĭ": 4706,
      "æĿ¥æıĲé«ĺ": 4707,
      "å¼ºå¤§": 4708,
      "ãĢį": 4709,
      "åĲİçļĦ": 4710,
      "å½ĵä»Ĭ": 4711,
      "æıĴ": 4712,
      "ä¸¥æł¼": 4713,
      "ç½ļ": 4714,
      "çŁĽçĽ¾": 4715,
      "è¦ģæ³¨æĦı": 4716,
      "åłµ": 4717,
      "åıĺéĿ©": 4718,
      "æĪ·å¤ĸæ´»åĬ¨": 4719,
      "å¯Ĥ": 4720,
      "å®Ŀå®Ŀ": 4721,
      "æ¯«": 4722,
      "èĬ¬": 4723,
      "å½ĵåľ°çļĦ": 4724,
      "ä¼łéĢĴ": 4725,
      "èĬĤå¥ı": 4726,
      "æľīæĹ¶": 4727,
      "çļĦæĢģåº¦": 4728,
      "åĽĽä¸ª": 4729,
      "åģ·": 4730,
      "çļĦæ°´æŀľ": 4731,
      "é³": 4732,
      "ä¸īç§į": 4733,
      "çŃīæĸ¹å¼ı": 4734,
      "äºİæĺ¯": 4735,
      "æł¹æį®æīĢ": 4736,
      "æµ¸": 4737,
      "äººå·¥æĻºèĥ½çļĦåºĶçĶ¨": 4738,
      "çĩĥæĸĻ": 4739,
      "æ¸ħåįķ": 4740,
      "åı¯èĥ½æĢ§": 4741,
      "å¹¿æ³ĽçļĦåºĶçĶ¨": 4742,
      "æĿ¥çľĭ": 4743,
      "åľºåĲĪ": 4744,
      "ç¬¬äºĮä¸ª": 4745,
      "è¿Ļä½į": 4746,
      "æ¨¡ä»¿": 4747,
      "éĶĢåĶ®é¢Ŀ": 4748,
      "èĬ±è´¹": 4749,
      "çľ¼çĿĽ": 4750,
      "å¥½äºĨ": 4751,
      "æ°´åĴĮ": 4752,
      "æĢģåº¦": 4753,
      "åİ¿": 4754,
      "éĻ¤æŃ¤": 4755,
      "è¯ĦåĪĨ": 4756,
      "è´¹çĶ¨": 4757,
      "åĮĸåĲĪçī©": 4758,
      "åĲ¬åĪ°": 4759,
      "æľºåĻ¨ç¿»è¯ĳ": 4760,
      "å°¤åħ¶æĺ¯": 4761,
      "çīĽèĤī": 4762,
      "åı«åģļ": 4763,
      "å°Ĩä¸ĭéĿ¢": 4764,
      "åİĤ": 4765,
      "æĺĵäºİçĲĨè§£": 4766,
      "çļĦåŃ¦ä¹ł": 4767,
      "åĶ¯ä¸Ģ": 4768,
      "æĬµ": 4769,
      "å¥¥è¿Ĳ": 4770,
      "å¯¹æīĭ": 4771,
      "æľªæĿ¥åıĳå±ķ": 4772,
      "çĶµåĬ¨": 4773,
      "æ»¤": 4774,
      "èģĶåĲĪ": 4775,
      "ç¢Ĺ": 4776,
      "èĪĩ": 4777,
      "åľŁå£¤": 4778,
      "æĸ°äº§åĵģ": 4779,
      "èį¡": 4780,
      "åĲĪåĲĮ": 4781,
      "å¤±åİ»": 4782,
      "æĦŁåĴĮ": 4783,
      "å¾·åĽ½": 4784,
      "éĤĢè¯·": 4785,
      "é«Ķ": 4786,
      "æŀĦæĪĲ": 4787,
      "éľĢè¦ģæ³¨æĦıçļĦæĺ¯": 4788,
      "è¾ŀ": 4789,
      "è¯Ńæ³ķåĴĮ": 4790,
      "å®ģéĿĻ": 4791,
      "æĻ¯è§Ĥ": 4792,
      "è´¯": 4793,
      "éĻ¤æŃ¤ä¹ĭå¤ĸ": 4794,
      "é¦Ļæ¸¯": 4795,
      "åı¯ä»¥æĺ¯": 4796,
      "æķ´ä½ĵ": 4797,
      "çļĦæ¨¡": 4798,
      "é¢Ħè®¡": 4799,
      "å½ĵä½ł": 4800,
      "æ¯ıæ¬¡": 4801,
      "yt": 4802,
      "è±¡å¾ģ": 4803,
      "å¯¹æĸĩæľ¬": 4804,
      "èµĭ": 4805,
      "æĮĸ": 4806,
      "ä¸ĢçĤ¹": 4807,
      "æĸĩä¸Ń": 4808,
      "éŁµ": 4809,
      "èĩ´åĬĽäºİ": 4810,
      "è¿Ļåº§": 4811,
      "å¸¦æĿ¥çļĦ": 4812,
      "éĩįåĨĻä»¥ä¸ĭåı¥åŃĲ": 4813,
      "æĮĳ": 4814,
      "èħ»": 4815,
      "åĢ¾åĲĳ": 4816,
      "ä¸¹": 4817,
      "ç»Ĵ": 4818,
      "é©±": 4819,
      "ç»ĻæĪĳä¸Ģä¸ª": 4820,
      "ä¸¾åĬŀ": 4821,
      "å®īè£ħ": 4822,
      "èµĦæĸĻ": 4823,
      "ä¿¡åı·": 4824,
      "åı¦ä¸Ģ": 4825,
      "çļĦæµģ": 4826,
      "å¿ĥçģµ": 4827,
      "æ°´ä¸Ń": 4828,
      "13": 4829,
      "å¸½": 4830,
      "å¹³æĸ¹": 4831,
      "æ¼ł": 4832,
      "å¾Īéļ¾": 4833,
      "éĸĵ": 4834,
      "å®ĮåĸĦ": 4835,
      "èĭ±éĽĦ": 4836,
      "çİ°åľ¨è¯·ä½ł": 4837,
      "å¦¹": 4838,
      "éĿŀå¸¸æľī": 4839,
      "éĸĭ": 4840,
      "æĩī": 4841,
      "åĴĮé«ĺ": 4842,
      "çģ«æĺŁ": 4843,
      "æľīäºº": 4844,
      "è¯¥æĸĩç«ł": 4845,
      "ãĢĤãĢĬ": 4846,
      "é¦¨": 4847,
      "å¾Ģå¾Ģ": 4848,
      "åĴĮæķ°æį®": 4849,
      "ä¸ºä¸Ģä¸ª": 4850,
      "çļĦç¨ĭ": 4851,
      "è¿ĻäºĽéĹ®é¢ĺ": 4852,
      "éļıæľº": 4853,
      "åº¦çļĦ": 4854,
      "çļĦæĬĢå·§": 4855,
      "æĹħæ¸¸æĻ¯çĤ¹": 4856,
      "åĴĮæĬĢæľ¯": 4857,
      "æĪĲç«ĭ": 4858,
      "ç¤¾ä¼ļçļĦ": 4859,
      "é½Ĳ": 4860,
      "ä¾¿æį·": 4861,
      "äººå¿ĥ": 4862,
      "æĢİä¹ĪåĬŀ": 4863,
      "çļĦç¾İå¥½": 4864,
      "è¡¬": 4865,
      "ä¼Ļä¼´": 4866,
      "çļĦè¿ĩç¨ĭä¸Ń": 4867,
      "è®¯": 4868,
      "å¤©ä½ĵ": 4869,
      "æĵħ": 4870,
      "ä¼łç»ŁçļĦ": 4871,
      "æ¯ıäºº": 4872,
      "æ¤ħ": 4873,
      "æīĢè¿°": 4874,
      "æ¯ıå¹´": 4875,
      "éŃħåĬĽ": 4876,
      "éĢļå¸¸æĺ¯": 4877,
      "ython": 4878,
      "çļĦæĦŁåıĹ": 4879,
      "åı¯èĥ½ä¼ļå¯¼èĩ´": 4880,
      "å¤±è´¥": 4881,
      "åıįæĺł": 4882,
      "æľīæľº": 4883,
      "å¸Ń": 4884,
      "æĴŀ": 4885,
      "å®ļåĪ¶": 4886,
      "æĺ¯ä¸Ģé¡¹": 4887,
      "æĭ¼åĨĻéĶĻè¯¯": 4888,
      "å¹¶è¿Ľè¡Į": 4889,
      "ä¸ŃåĽ½çļĦ": 4890,
      "è¦ĨçĽĸ": 4891,
      "æłĩè®°": 4892,
      "çļĦæĥħèĬĤ": 4893,
      "èµĦéĩĳ": 4894,
      "ç»ĻæĪĳä¸ĢäºĽ": 4895,
      "ä¼ļå¯¹": 4896,
      "Ġäººå·¥æĻºèĥ½": 4897,
      "ç¶ĵ": 4898,
      "å¸®æĪĳæĥ³": 4899,
      "æ¼Ķè®²": 4900,
      "åħ±äº«": 4901,
      "æľĪçĲĥ": 4902,
      "çļĦæĶ¹": 4903,
      "çĻĮçĹĩ": 4904,
      "æ¨¡æĭŁäººç±»": 4905,
      "è¯·ç»ŃåĨĻ": 4906,
      "èĬĤçĽ®": 4907,
      "åı¯ä»¥å¸®åĬ©æĪĳä»¬": 4908,
      "åŃ¦æľ¯": 4909,
      "çĲĥåĳĺ": 4910,
      "çī¹åĪ«æĺ¯": 4911,
      "Ŀåįľ": 4912,
      "è¿ĺæľīåħ¶ä»ĸ": 4913,
      "è¡¨çİ°åĩº": 4914,
      "Python": 4915,
      "å°ıçļĦ": 4916,
      "åªļ": 4917,
      "çļĦæĹ¥": 4918,
      "éĿŀæ´²": 4919,
      "ç»ĻäºĪ": 4920,
      "åĩºçĶŁ": 4921,
      "åĩ¯": 4922,
      "çªģåĩº": 4923,
      "æļĤ": 4924,
      "çģ«è½¦": 4925,
      "äººå·¥æĻºèĥ½åľ¨åĮ»çĸĹé¢ĨåŁŁ": 4926,
      "åı¯ä»¥å°Ŀè¯ķ": 4927,
      "çļĦæĳĦåħ¥": 4928,
      "ç½ĳä¸Ĭ": 4929,
      "æ´ĭèĳ±": 4930,
      "æııè¿°ä¸Ģä¸ª": 4931,
      "äºĨä»Ģä¹Ī": 4932,
      "æĴĴ": 4933,
      "éĥ½èĥ½": 4934,
      "ç²¾åĩĨ": 4935,
      "å°ıçİĭ": 4936,
      "æĪĳå·²ç»ı": 4937,
      "ä¸Ńå¤®": 4938,
      "æĪĳå¯¹": 4939,
      "æīĭè¡¨": 4940,
      "åĮĹæŀģ": 4941,
      "èĿ¶": 4942,
      "æĺ¯äººç±»": 4943,
      "å¼ķäºº": 4944,
      "å¸Ĥä¸Ńå¿ĥ": 4945,
      "ä¸Ĭæľī": 4946,
      "å¤ĸå¥Ĺ": 4947,
      "éĹľ": 4948,
      "çļĦç¤¾äº¤": 4949,
      "è¿Ļåľº": 4950,
      "éĻ¤æ³ķ": 4951,
      "ç¾½": 4952,
      "ç§ĳæĬĢçļĦ": 4953,
      "åĴĮæĥħæĦŁ": 4954,
      "è¿Ļéģĵ": 4955,
      "åĿĩè¡¡": 4956,
      "åĩłå¹´": 4957,
      "å¿łè¯ļ": 4958,
      "èıĩ": 4959,
      "ç»Īäºİ": 4960,
      "çļĦæķĪæŀľ": 4961,
      "éģĹäº§": 4962,
      "ä¼ļåľ¨": 4963,
      "è¯·åĽŀçŃĶ": 4964,
      "çİ¯ä¿ĿæĦıè¯Ĩ": 4965,
      "è¿ĶåĽŀ": 4966,
      "éĩįéĩı": 4967,
      "çļĦä»·æł¼": 4968,
      "åĪłéĻ¤": 4969,
      "è¹Ī": 4970,
      "ä»¥ä¸ĭæĸĩç«ł": 4971,
      "å¤ªç©ºæİ¢ç´¢": 4972,
      "çļĦæ¢¦æĥ³": 4973,
      "ç¼ĺ": 4974,
      "åħĪè¿Ľ": 4975,
      "éĶģ": 4976,
      "åģ¥åº·åĴĮ": 4977,
      "æĪĳå¸ĮæľĽ": 4978,
      "è¯·ç»ŃåĨĻä»ĸä»¬çļĦå¯¹è¯ĿåĨħå®¹": 4979,
      "ç»ĻæĤ¨": 4980,
      "å±±èĦī": 4981,
      "åĩĿ": 4982,
      "è¡ĵ": 4983,
      "çĪ¸": 4984,
      "æĭĤ": 4985,
      "é¥®é£Łä¹łæĥ¯": 4986,
      "ä¸Ńç«ĭ": 4987,
      "éĿŀæ³ķ": 4988,
      "ä¸¤ä¸ªäºº": 4989,
      "ç£ģ": 4990,
      "äºļæ´²": 4991,
      "æĺ¯éĢļè¿ĩ": 4992,
      "AIè¯Ńè¨Ģæ¨¡åŀĭ": 4993,
      "en": 4994,
      "ä¸įå¥½": 4995,
      "æ¶Īæģ¯": 4996,
      "æ»´": 4997,
      "è¿Ļä¹Ī": 4998,
      "ä½Ĩå®ĥ": 4999,
      "åİ»å¹´": 5000,
      "æĿĲè´¨": 5001,
      "åģ¶": 5002,
      "æĽ´å¥½åľ°äºĨè§£": 5003,
      "éĢĹ": 5004,
      "èįĴ": 5005,
      "æ³¨æĦıåĬĽ": 5006,
      "é¢Ī": 5007,
      "å¤ıæĹ¥": 5008,
      "or": 5009,
      "å½¢çļĦ": 5010,
      "åĲ¸æĶ¶": 5011,
      "éļľç¢į": 5012,
      "çļĦçĬ¶": 5013,
      "çļĦæ¸ħ": 5014,
      "æ½®æµģ": 5015,
      "åįķä½į": 5016,
      "ä¸įåĪ°": 5017,
      "æĢĸ": 5018,
      "å®¶æĹı": 5019,
      "æľĢå¤ļ": 5020,
      "è£Ĥ": 5021,
      "ç©·": 5022,
      "éī": 5023,
      "åħ¬å¹³": 5024,
      "ä¸įä»ħä»ħ": 5025,
      "éĢıæĺİ": 5026,
      "åĪĨæĶ¯": 5027,
      "GPTæ¨¡åŀĭ": 5028,
      "çļĦä¹¦": 5029,
      "è¿Ļæĺ¯åĽłä¸º": 5030,
      "æĸĩä»¶": 5031,
      "ä¹Łåľ¨": 5032,
      "è´¸æĺĵ": 5033,
      "çĽ¸æ¯Ķ": 5034,
      "ä¸īè§Ĵ": 5035,
      "åı¯ä»¥çĶ¨äºİ": 5036,
      "æľīéĻĲ": 5037,
      "ä¿ĿçķĻ": 5038,
      "åĴĮå»ºè®®": 5039,
      "èµ·æºĲ": 5040,
      "æľºéģĩ": 5041,
      "åħ¨åĽ½": 5042,
      "æĦıè§ģ": 5043,
      "åĨłåĨĽ": 5044,
      "æĬķåħ¥": 5045,
      "æ¼ı": 5046,
      "å¾ĭå¸Ī": 5047,
      "å¤©æ°Ķé¢ĦæĬ¥": 5048,
      "æĪĳåĢĳ": 5049,
      "åıįä¹īè¯į": 5050,
      "æķ°ä¸º": 5051,
      "ç¨¿": 5052,
      "èĦĨ": 5053,
      "ç½©": 5054,
      "çĶŁåĬ¨": 5055,
      "åİŁå§ĭæĸĩæľ¬": 5056,
      "æĶ¾æĿ¾èº«å¿ĥ": 5057,
      "ç©¿è¶Ĭ": 5058,
      "åĪ¶åĵģ": 5059,
      "çļĦå¥½å¤Ħ": 5060,
      "æĸĩç«łåĨħå®¹": 5061,
      "æľīäºĽäºº": 5062,
      "è¼": 5063,
      "èķ´": 5064,
      "çĥŃéĹ¨": 5065,
      "å®ŀéĻħä¸Ĭ": 5066,
      "æīĵéĢł": 5067,
      "ä»¥æıĲé«ĺ": 5068,
      "ç¨į": 5069,
      "è°¨": 5070,
      "èīºæľ¯å®¶": 5071,
      "ä¸Ģéģĵ": 5072,
      "æµĭéĩı": 5073,
      "åİĨåı²ä¸Ĭ": 5074,
      "ä¹Ĳè¶£": 5075,
      "å°¼äºļ": 5076,
      "éĿ©åĳ½": 5077,
      "åŃ©åŃĲä»¬": 5078,
      "èĥ½å¤Łå¸®åĬ©": 5079,
      "çĪ±çļĦ": 5080,
      "åľĭ": 5081,
      "æ¯Ķåĸ»": 5082,
      "æľįè£ħ": 5083,
      "å¨ľ": 5084,
      "çļĦç¾İä¸½": 5085,
      "æĪĳè¦ģ": 5086,
      "æĺ¯ç¾İåĽ½": 5087,
      "åı¯ä»¥ä¸º": 5088,
      "å°Ĭæķ¬çļĦ": 5089,
      "åĽŀåĪ°": 5090,
      "å¹¶è§£éĩĬ": 5091,
      "çº¢èī²çļĦ": 5092,
      "èŀįåĲĪ": 5093,
      "æ¬º": 5094,
      "åıĮæĸ¹": 5095,
      "çĮ«åĴª": 5096,
      "éĿ¢è¯ķ": 5097,
      "èī³": 5098,
      "å¤§åľ°": 5099,
      "èĪŀè¹Ī": 5100,
      "æµħ": 5101,
      "åĪ©æ¶¦": 5102,
      "åĨ²çªģ": 5103,
      "å¿ĥçĲĨåŃ¦": 5104,
      "åĹ¯": 5105,
      "ä»ģ": 5106,
      "åľ°ä½į": 5107,
      "èĥ½ä¸įèĥ½": 5108,
      "éĺĲè¿°": 5109,
      "æıĲä¾ĽæĽ´": 5110,
      "è¯ĬæĸŃåĴĮæ²»çĸĹ": 5111,
      "æİ¥è§¦": 5112,
      "çħİ": 5113,
      "çļĦè¯Ŀé¢ĺ": 5114,
      "éĩĳå±ŀ": 5115,
      "éī´": 5116,
      "çĶ»éĿ¢": 5117,
      "çļĦæķĻèĤ²": 5118,
      "ä½©": 5119,
      "ä¸įåĨį": 5120,
      "æĸ¯åĿ¦": 5121,
      "è¿Ļè¡¨æĺİ": 5122,
      "å®īéĿĻ": 5123,
      "çľŁæĺ¯": 5124,
      "ãĢĤâĢľ": 5125,
      "çİ»": 5126,
      "éħįæĸĻ": 5127,
      "çĥŃéĩı": 5128,
      "åį¢": 5129,
      "è¯Ńä¹ī": 5130,
      "æľ¬èº«": 5131,
      "å¼Ģå±ķ": 5132,
      "éĵº": 5133,
      "çī¹æĢ§": 5134,
      "è½¬åĮĸä¸º": 5135,
      "éªĳèĩªè¡Įè½¦": 5136,
      "åĴĮæĹ¶éĹ´": 5137,
      "åĩĨç¡®çļĦ": 5138,
      "åįıä½ľ": 5139,
      "æĿ¥çļĦ": 5140,
      "å¿ĥä¸Ń": 5141,
      "æľīä»»ä½ķ": 5142,
      "ä½ĵç³»": 5143,
      "åĲĪå¹¶": 5144,
      "åħ¬å¼ı": 5145,
      "æĪĳæİ¨èįĲ": 5146,
      "æľĢéĩįè¦ģçļĦ": 5147,
      "çļĦåĲĮæĹ¶": 5148,
      "æĪĳæŃ£åľ¨": 5149,
      "90": 5150,
      "æĸĩæ¡ĪçĶŁæĪĲ": 5151,
      "ä¸Ģå®ļçļĦ": 5152,
      "è°ľ": 5153,
      "ç²¾å½©": 5154,
      "æĿ¥å¸®åĬ©": 5155,
      "æħİ": 5156,
      "åľ¨æĪĳ": 5157,
      "åįĩé«ĺ": 5158,
      "éļ¾å¿ĺ": 5159,
      "çļĦé¦ĸ": 5160,
      "è¡¨æł¼": 5161,
      "åįĹæŀģ": 5162,
      "æł¸å¿ĥ": 5163,
      "å°ıåŀĭ": 5164,
      "çĴĥ": 5165,
      "2022": 5166,
      "çŃīæĬĢæľ¯": 5167,
      "æ¶¯": 5168,
      "èĩªçĦ¶çİ¯å¢ĥ": 5169,
      "ä»Ĭå¤©å¤©æ°Ķ": 5170,
      "çĸ²åĬ³": 5171,
      "åı¯ä»¥å¾ĹåĪ°": 5172,
      "å¸¦æľī": 5173,
      "åĴĮäººç±»": 5174,
      "çļĦæĬķèµĦ": 5175,
      "åİŁåı¥": 5176,
      "æīĵç®Ĺ": 5177,
      "å¾ĪæĬ±æŃī": 5178,
      "å¼Ĥå¸¸": 5179,
      "åĽŀå½Ĵ": 5180,
      "èµİ": 5181,
      "é¼»": 5182,
      "æĴĳ": 5183,
      "æ°ĳæĹı": 5184,
      "åħ¨çĲĥèĮĥåĽ´åĨħ": 5185,
      "èĩªåĬ¨é©¾é©¶æ±½è½¦": 5186,
      "å¾Īä¸įéĶĻ": 5187,
      "çĶ³è¯·": 5188,
      "ä¼ļæľī": 5189,
      "é¢Ħè®¢": 5190,
      "æķ°æį®çļĦ": 5191,
      "æĹħç¨ĭ": 5192,
      "ä¼ĺç§ĢçļĦ": 5193,
      "æŃ¥è¡Į": 5194,
      "æıĲåīį": 5195,
      "èµ¶": 5196,
      "éĻĮ": 5197,
      "ä¸Ģåı¥": 5198,
      "åľ°åĽ¾": 5199,
      "åłĨ": 5200,
      "æĪĲåĬŁåľ°": 5201,
      "æ¢°": 5202,
      "ä½ĵçİ°": 5203,
      "èĬĤèĥ½": 5204,
      "æ³ī": 5205,
      "ç´§æĢ¥": 5206,
      "å¾Īå¿«": 5207,
      "åį³å°Ĩ": 5208,
      "æĹ¥å¸¸çĶŁæ´»ä¸Ń": 5209,
      "æ³°åĿ¦": 5210,
      "å¾Īæ£Ĵ": 5211,
      "ä¸įå¾Ĺ": 5212,
      "éĻ¶": 5213,
      "æĺİåªļ": 5214,
      "ç®ĢçŁŃçļĦ": 5215,
      "å¤§è±¡": 5216,
      "åĩºåıĳ": 5217,
      "åı¯èĥ½çļĦ": 5218,
      "èº«è¾¹": 5219,
      "å¯ĮåĲ«": 5220,
      "åĽŀå¤į": 5221,
      "çĳ°": 5222,
      "åŁºäºİä»¥ä¸Ĭ": 5223,
      "åįĵ": 5224,
      "äººéĻħ": 5225,
      "åı¯è¡Į": 5226,
      "çĽ¸åºĶçļĦ": 5227,
      "çĽ¸åħ³ä¿¡æģ¯": 5228,
      "æĪĳä¸įèĥ½": 5229,
      "æĪĳå»ºè®®": 5230,
      "åĮĸçŁ³": 5231,
      "çĮľ": 5232,
      "æľįåĬ¡åĳĺ": 5233,
      "ä»¥å¸®åĬ©": 5234,
      "500": 5235,
      "ä»£æĽ¿": 5236,
      "å¥¥è¿Ĳä¼ļ": 5237,
      "éģ¥": 5238,
      "å°¼åħĭåı·": 5239,
      "å¤¹": 5240,
      "æ´»åĬĽ": 5241,
      "åıĹä¼¤": 5242,
      "çº¦ä¸º": 5243,
      "é¥¼å¹²": 5244,
      "çģµæĦŁ": 5245,
      "åı¯ä»¥å¸®åĬ©ä½ł": 5246,
      "è¿Ļä¹Ł": 5247,
      "æľīå®³": 5248,
      "åŃĻ": 5249,
      "äº«çĶ¨": 5250,
      "çļĦæ¤": 5251,
      "çº¢æ¥¼": 5252,
      "åŃ¦ä¹łç¼ĸç¨ĭ": 5253,
      "æİ¥ç§į": 5254,
      "æ¡Īä»¶": 5255,
      "é¹ħ": 5256,
      "åĩºçİ°äºĨ": 5257,
      "è«": 5258,
      "å®¾è¯Ń": 5259,
      "å¤±æľĽ": 5260,
      "è¿Ļä»½": 5261,
      "ä¾£": 5262,
      "è´¾": 5263,
      "åĴĮåģ¥åº·": 5264,
      "ç©ĨæľĹ": 5265,
      "éĢłæĪĲäºĨ": 5266,
      "è¡Ģç®¡": 5267,
      "åĸľæ¬¢çļĦ": 5268,
      "åľŁåľ°": 5269,
      "äºĭé¡¹": 5270,
      "ç²¾åĬĽ": 5271,
      "å¤§è§Ħæ¨¡": 5272,
      "ç©ĨæľĹçİĽ": 5273,
      "æĦĪ": 5274,
      "ç¤ºä¾ĭ": 5275,
      "æĵħéķ¿": 5276,
      "åĲĪæ³ķ": 5277,
      "è°¢è°¢ä½ł": 5278,
      "æ¸ħæ¥ļ": 5279,
      "æħĪ": 5280,
      "æī«": 5281,
      "éģµå¾ª": 5282,
      "å§Ĳ": 5283,
      "æ³°åĿ¦å°¼åħĭåı·": 5284,
      "çļĦåĲįåŃĹ": 5285,
      "çļĦæ°ĽåĽ´": 5286,
      "ä¹ŁéĿŀå¸¸": 5287,
      "å¿ĺè®°": 5288,
      "è¡Ģåİĭ": 5289,
      "è¿Ĳè¾ĵ": 5290,
      "å°¿çĹħ": 5291,
      "æļĹç¤º": 5292,
      "ä¸ªæľĪ": 5293,
      "åı¯èĥ½éľĢè¦ģ": 5294,
      "æĻ´æľĹ": 5295,
      "ä¸įèµ·": 5296,
      "åľ¨è¿Ļä¸ªåı¥åŃĲä¸Ń": 5297,
      "çĶµè§Ĩåī§": 5298,
      "åĩºéĹ¨": 5299,
      "åŃ¦èĢħ": 5300,
      "åİĨç¨ĭ": 5301,
      "çĶ·å£«": 5302,
      "éľį": 5303,
      "åİ¨æĪ¿": 5304,
      "éĽ¾": 5305,
      "å¼ºå¤§çļĦ": 5306,
      "çĶ³åħĭ": 5307,
      "å¤§çĨĬçĮ«": 5308,
      "éĢļä¿¡": 5309,
      "èĤĸçĶ³åħĭ": 5310,
      "åħģ": 5311,
      "æĪĳæĥ³è¦ģ": 5312,
      "å¯ĴåĨ·": 5313,
      "çļĦçĹħ": 5314,
      "Ġ+": 5315,
      "çļĦçŁŃæĸĩ": 5316,
      "æ°§æ°Ķ": 5317,
      "è§£çŃĶ": 5318,
      "åĬŀåħ¬å®¤": 5319,
      "çļĦæİ¢": 5320,
      "éĩİé¤Ĳ": 5321,
      "æķ°åŃĹåĮĸ": 5322,
      "çļĦåħ³éĶ®è¯į": 5323,
      "æĪĳè¿ĺ": 5324,
      "å¦Ĩ": 5325,
      "æµ´": 5326,
      "æ³½": 5327,
      "è°·æŃĮ": 5328,
      "æĳĦæ°ı": 5329,
      "é¢ĨåŁŁçļĦåºĶçĶ¨": 5330,
      "çļĦæĢ»ç»ĵ": 5331,
      "çļĦæĢ§èĥ½": 5332,
      "éķ¿åŁİ": 5333,
      "æŁĲç§į": 5334,
      "è¾Ľ": 5335,
      "çĽĪ": 5336,
      "è¯·æ±Ĥ": 5337,
      "ä½Ĩåľ¨": 5338,
      "çŃīåĽłç´ł": 5339,
      "çļĦçī¹å¾ģ": 5340,
      "æķ°çĻ¾": 5341,
      "ç©ĨæľĹçİĽå³°": 5342,
      "çļĦçģµ": 5343,
      "æ¯ģ": 5344,
      "åīįæıĲ": 5345,
      "çİ»çĴĥ": 5346,
      "çĥŃçĪ±": 5347,
      "æĸĩæ¡£": 5348,
      "çļĦæĻ¯çĤ¹": 5349,
      "çļĦç´": 5350,
      "å¾®é£İ": 5351,
      "æĮĩåįĹ": 5352,
      "åĪ¶æĪĲ": 5353,
      "æ¯ıåĳ¨": 5354,
      "ä¸Ģç¯ĩåħ³äºİ": 5355,
      "çļĦæĶ¶": 5356,
      "çĲĥéĺŁ": 5357,
      "åį±å®³": 5358,
      "çº¢æ¥¼æ¢¦": 5359,
      "æľºåľº": 5360,
      "åĸ·": 5361,
      "åĪ¶åº¦": 5362,
      "ä¼Ĺå¤ļ": 5363,
      "ä¸ŃçļĦåħ³éĶ®è¯į": 5364,
      "çļĦæķĳ": 5365,
      "çļĦæŃ¥éª¤": 5366,
      "æľīçĶ¨": 5367,
      "èħ°": 5368,
      "æĻ®åıĬ": 5369,
      "æĸĳ": 5370,
      "ç³ĸå°¿çĹħ": 5371,
      "é¥®çĶ¨": 5372,
      "éĩİçĶŁåĬ¨çī©": 5373,
      "çļĦæĸĩåĮĸ": 5374,
      "ä»ĸåĢĳ": 5375,
      "æĻ¶": 5376,
      "åī²": 5377,
      "æķĻåŃ¦": 5378,
      "æľŁæľĽ": 5379,
      "ä»¥ä¸ĭæĺ¯ä¸ĢäºĽ": 5380,
      "å¯º": 5381,
      "æĪĳä»¬å¿ħé¡»": 5382,
      "æ¡Īä¾ĭ": 5383,
      "æĮĸæİĺ": 5384,
      "æĹ±": 5385,
      "80": 5386,
      "å¤·": 5387,
      "ä¸ºä¸»": 5388,
      "åľ¨éĤ£éĩĮ": 5389,
      "å¤Ħäºİ": 5390,
      "å¤ļåħĥ": 5391,
      "åĮºåĿĹéĵ¾æĬĢæľ¯": 5392,
      "çĶµåĻ¨": 5393,
      "è¿ľç¨ĭ": 5394,
      "åįıåĬ©": 5395,
      "å¯¼èĩ´äºĨ": 5396,
      "ä¼ı": 5397,
      "ä¼ŀ": 5398,
      "åĲİæŀľ": 5399,
      "æ¶ĪéĻ¤": 5400,
      "è°¢è°¢ä½łçļĦ": 5401,
      "è¾£æ¤Ĵ": 5402,
      "æĺ¯è°ģ": 5403,
      "æ©ĺ": 5404,
      "ç»ĦæĪĲéĥ¨åĪĨ": 5405,
      "çĽĨ": 5406,
      "å¤º": 5407,
      "ä¹Ļ": 5408,
      "èĥ½å¤Łåľ¨": 5409,
      "ä¸įå°ĳ": 5410,
      "èĢģé¼ł": 5411,
      "ç»¼ä¸Ĭ": 5412,
      "¡èĲĿåįľ": 5413,
      "åĴĮè¡Įä¸º": 5414,
      "æĿ°åħĭ": 5415,
      "èĥ¡èĲĿåįľ": 5416,
      "æĶ¹æŃ£": 5417,
      "æ°ĽåĽ´": 5418,
      "åĩºåİ»": 5419,
      "è¿ĩäºİ": 5420,
      "çĲĨå¿µ": 5421,
      "çĸ¼": 5422,
      "çļĦä½ľçĶ¨": 5423,
      "éĹ®çŃĶ": 5424,
      "ä¸Ģèµ·åİ»": 5425,
      "æĿ¥åĪ°": 5426,
      "è¯Ĺäºº": 5427,
      "çıłç©ĨæľĹçİĽå³°": 5428,
      "ç²¾ç¡®": 5429,
      "è¿Ļä¸ªäºº": 5430,
      "åģļæ³ķ": 5431,
      "çĶ¨åĵģ": 5432,
      "å¾Īå¤§çļĦ": 5433,
      "å°ıæĺİçļĦ": 5434,
      "å®ļä½į": 5435,
      "ä¸ĬäºĨ": 5436,
      "çłĶç©¶äººåĳĺ": 5437,
      "æĦŁçŁ¥": 5438,
      "åıł": 5439,
      "çľŁæŃ£çļĦ": 5440,
      "æ»ļ": 5441,
      "æĺ¨æĻļ": 5442,
      "ç¾İåĳ³çļĦ": 5443,
      "å®ĥåľ¨": 5444,
      "å¹³åĿĩåĪĨç»Ļ": 5445,
      "éĿ¢ä¸Ĭ": 5446,
      "åĸľåī§": 5447,
      "æĪĳæĺ¨å¤©": 5448,
      "è¯·ä¸º": 5449,
      "br": 5450,
      "ç³Ĭ": 5451,
      "å·¥ä½ľæķĪçİĩ": 5452,
      "ä½ľä¸ļ": 5453,
      "ï¼ģâĢĿ": 5454,
      "çļĦå£°éŁ³": 5455,
      "æ¥Ń": 5456,
      "åĩıç¼ĵ": 5457,
      "æ³Ħ": 5458,
      "äº¦": 5459,
      "æ¸©é¦¨": 5460,
      "æĦŁæ¿Ģ": 5461,
      "æ³¥": 5462,
      "ä¹ĭæĹħ": 5463,
      "èĢĮä¸į": 5464,
      "ç§ĭåŃ£": 5465,
      "åįıè°ĥ": 5466,
      "çİ°åľº": 5467,
      "æĹłè®ºæĺ¯": 5468,
      "çļĦèĬ±": 5469,
      "æ¿Ģåıĳ": 5470,
      "è®ĵ": 5471,
      "çĭ®åŃĲ": 5472,
      "åĮ»çĸĹè¡Įä¸ļ": 5473,
      "è¿ĻäºĽä¿¡æģ¯": 5474,
      "åıĹåĪ°äºĨ": 5475,
      "éĻĮçĶŁ": 5476,
      "å¤ķ": 5477,
      "âĦ": 5478,
      "æĸĩç«łä¸ŃæıĲåĪ°": 5479,
      "æľĢè¿ĳçļĦ": 5480,
      "åĲģ": 5481,
      "ä¼ĺåħĪ": 5482,
      "æĪĳåİ»": 5483,
      "è¶ħçº§": 5484,
      "å·¥ä½ľåĴĮ": 5485,
      "çİ¯å¢ĥéĹ®é¢ĺ": 5486,
      "æµĵéĥģ": 5487,
      "åı¤è¯Ĺç»ŃåĨĻ": 5488,
      "æ¢¨": 5489,
      "åĬ£": 5490,
      "æĪĳä»Ĭå¤©": 5491,
      "çĶŁæ´»çļĦ": 5492,
      "èģĮåľº": 5493,
      "ç®ĢåĮĸ": 5494,
      "æĺĨ": 5495,
      "å·²çŁ¥": 5496,
      "åįİçĽĽ": 5497,
      "éĢĹåı·": 5498,
      "çĥĤ": 5499,
      "åĨ¬å¤©": 5500,
      "æ§": 5501,
      "å®¶åĽŃ": 5502,
      "åı¤åħ¸": 5503,
      "å¿«éĢŁåıĳå±ķ": 5504,
      "åıĻ": 5505,
      "è´¢å¯Į": 5506,
      "âĦĥ": 5507,
      "å¤įæĿĤçļĦ": 5508,
      "é¥±": 5509,
      "èĤīç±»": 5510,
      "æĿ¨": 5511,
      "åĩºèī²çļĦ": 5512,
      "æŁľ": 5513,
      "ä¿ĿæĬ¤æĪĳä»¬çļĦ": 5514,
      "åĩºä¸Ģä¸ª": 5515,
      "ç·": 5516,
      "é¹¿": 5517,
      "çļĦåĬĽéĩı": 5518,
      "è¿Ļä¸ªæķħäºĭ": 5519,
      "å§ĭç»Ī": 5520,
      "åįİçĽĽé¡¿": 5521,
      "ä¸įå¤Ł": 5522,
      "å¦»": 5523,
      "åļ": 5524,
      "å¯ĵ": 5525,
      "è®¾è®¡ä¸Ģä¸ª": 5526,
      "åĪĽéĢłåĬĽ": 5527,
      "æķĮ": 5528,
      "æįŁå¤±": 5529,
      "åģıè§ģ": 5530,
      "çıįæĥľ": 5531,
      "éĢīæĭ©ä¸Ģä¸ª": 5532,
      "éĶĻåĪ«": 5533,
      "ä¸ĵæ³¨äºİ": 5534,
      "åĩºçļĦ": 5535,
      "å¼¦": 5536,
      "æĻļé¤Ĳ": 5537,
      "çī©èģĶç½ĳ": 5538,
      "ä¸įèī¯": 5539,
      "éĶĻåĪ«åŃĹ": 5540,
      "éĤ¦": 5541,
      "çĩ¥": 5542,
      "ç§ĳåŃ¦å®¶ä»¬": 5543,
      "æī©å±ķ": 5544,
      "æĥ§": 5545,
      "æĸĩæľ¬è¿Ľè¡Į": 5546,
      "æĶ¹åıĺäºĨ": 5547,
      "éĢĨ": 5548,
      "ç«Ł": 5549,
      "ä¹°äºĨä¸Ģ": 5550,
      "æĭĸ": 5551,
      "ä»ĸä»¬ä¹ĭéĹ´": 5552,
      "æĥħå¢ĥ": 5553,
      "å¾Īå¤ļäºº": 5554,
      "éĢļè¿ĩå¯¹": 5555,
      "èŃ¦æĸ¹": 5556,
      "ä¸įç¡®å®ļ": 5557,
      "æĸľ": 5558,
      "åħ³éĹŃ": 5559,
      "èĨľ": 5560,
      "ç»Ļäºº": 5561,
      "ä¸įåŃĺåľ¨": 5562,
      "ç¾İæĻ¯": 5563,
      "ĠÃ·": 5564,
      "å¥¶éħª": 5565,
      "è¯·æł¹æį®": 5566,
      "Ġ4": 5567,
      "å·²æĪĲä¸º": 5568,
      "åĲ¬éŁ³ä¹Ĳ": 5569,
      "æĶĢ": 5570,
      "çĲĨçĶ±": 5571,
      "å¼ºåº¦": 5572,
      "è¿ĲåĬ¨åĳĺ": 5573,
      "âĢ¦âĢ¦": 5574,
      "Ħæ¦": 5575,
      "åľ°åĲį": 5576,
      "çĶ¨éĢĶ": 5577,
      "åİŁåŃĲ": 5578,
      "æĸ°éĹ»æłĩé¢ĺ": 5579,
      "æĸ°æĬĢæľ¯": 5580,
      "è³ĩ": 5581,
      "èĩ³åħ³éĩįè¦ģ": 5582,
      "ãĢĤ\"</": 5583,
      "æĿī": 5584,
      "æ¶¨": 5585,
      "æĹħæ¸¸çĽ®çļĦåľ°": 5586,
      "æ¼«æŃ¥": 5587,
      "æķ°æį®åĪĨæŀĲ": 5588,
      "éĢļå¸¸ä¼ļ": 5589,
      "ä¸ĸçķĮåĲĦåľ°": 5590,
      "Ħæ¦Ħ": 5591,
      "è®°å¾Ĺ": 5592,
      "çļĦé¢ĨåŁŁ": 5593,
      "at": 5594,
      "æĺ¯ä¸Ģå®¶": 5595,
      "äºļé©¬": 5596,
      "éªĹ": 5597,
      "æģĲæĢĸ": 5598,
      "æĺİäº®": 5599,
      "ĸæģ¯": 5600,
      "æĺİçĻ½äºĨ": 5601,
      "çŃĽ": 5602,
      "å°ĸ": 5603,
      "è¡Įé©¶": 5604,
      "çļĦçĮ«": 5605,
      "é¡Į": 5606,
      "çĿ¡è§ī": 5607,
      "çļĦç¼ĸç¨ĭ": 5608,
      "it": 5609,
      "å¦Ĥä½ķåĪ¶ä½ľ": 5610,
      "ä»¥åħ¶": 5611,
      "åĭĥ": 5612,
      "æĪ¿å±ĭ": 5613,
      "æ£ĭ": 5614,
      "ä»İä¸Ń": 5615,
      "å¸¦çĿĢ": 5616,
      "è¿Ī": 5617,
      "é£İæļ´": 5618,
      "éŃĤ": 5619,
      "å£³": 5620,
      "ä¸ĭçļĦ": 5621,
      "çĲĨæĥ³": 5622,
      "åıĤæķ°": 5623,
      "æķĻå¸Ī": 5624,
      "åĲĦä¸ªé¢ĨåŁŁ": 5625,
      "æĸĩè¨Ģ": 5626,
      "å±ıå¹ķ": 5627,
      "åĬłçĥŃ": 5628,
      "åĴĮçĲĨè§£": 5629,
      "æĽ´æĶ¹": 5630,
      "ä¿Ħ": 5631,
      "æııåĨĻ": 5632,
      "çļĦæ²Ļ": 5633,
      "çĭ¼": 5634,
      "çİ°ä»£ç¤¾ä¼ļ": 5635,
      "éĹ»åĲį": 5636,
      "èĸ¯": 5637,
      "çļĦçĭ¬": 5638,
      "ï¼ħ": 5639,
      "åľ°çĲĨ": 5640,
      "å»ºè®®åĲĹ": 5641,
      "èħ¾": 5642,
      "å±ħä½ı": 5643,
      "åľ¨åĵªéĩĮ": 5644,
      "å²ģçļĦ": 5645,
      "èĥĥ": 5646,
      "çŃīå¤ļä¸ª": 5647,
      "æľīæ°§": 5648,
      "æł¹æį®èĩªå·±çļĦ": 5649,
      "å¹²åĩĢ": 5650,
      "ä¸¤äºº": 5651,
      "åĳ¼åĲģ": 5652,
      "____": 5653,
      "æĮ¯": 5654,
      "ç¢ĳ": 5655,
      "äºļé©¬éĢĬ": 5656,
      "çĽ¸å½ĵ": 5657,
      "æ¡Ĩ": 5658,
      "å°ĩ": 5659,
      "ç¥ĸ": 5660,
      "çļĦæ¡": 5661,
      "æĸĩè¨Ģæĸĩ": 5662,
      "çļĦæ²ŁéĢļ": 5663,
      "è°ĭ": 5664,
      "éĻªä¼´": 5665,
      "èĺĳ": 5666,
      "è¿ĻäºĽéĥ½æĺ¯": 5667,
      "å¾Īé«ĺåħ´": 5668,
      "æľĪäº®": 5669,
      "æŁ¿": 5670,
      "æ³ª": 5671,
      "åĿĲåľ¨": 5672,
      "æıĲé«ĺäºĨ": 5673,
      "æ¿ĢçĥĪ": 5674,
      "ä½łæĺ¯": 5675,
      "äººæĢ§": 5676,
      "æĹ¥çĽĬ": 5677,
      "æºª": 5678,
      "çĭĹçļĦ": 5679,
      "èī°": 5680,
      "å¤ĩåıĹ": 5681,
      "æĪĺæĸĹ": 5682,
      "æ´Ĵ": 5683,
      "æīİ": 5684,
      "èĺĳèıĩ": 5685,
      "è¯Ńå¢ĥ": 5686,
      "è¡¨è¿°": 5687,
      "æ¸©å®¤æ°Ķä½ĵæİĴæĶ¾": 5688,
      "ä¿Ŀæļĸ": 5689,
      "åł´": 5690,
      "éĤ»": 5691,
      "æľīæĦıä¹ī": 5692,
      "åħģè®¸": 5693,
      "ç²®": 5694,
      "æİ¨è¿Ľ": 5695,
      "åĴĮä¸ªäºº": 5696,
      "ç¿Ķ": 5697,
      "å¤§å¤§": 5698,
      "æĺĤ": 5699,
      "éĺ¿çĶĺ": 5700,
      "æŀģç«¯å¤©æ°Ķ": 5701,
      "å±Ĥæ¬¡": 5702,
      "çļĦåĳ³éģĵ": 5703,
      "å©´": 5704,
      "çİ«": 5705,
      "å¼ķå¯¼": 5706,
      "çĤİçĥŃ": 5707,
      "ä¸Ģèĩ´": 5708,
      "æ²Ļåıĳ": 5709,
      "æıŃç¤º": 5710,
      "çļĦçĬ¶æĢģ": 5711,
      "ä¼Ĳ": 5712,
      "çŃīäºİ": 5713,
      "éĶĻè¿ĩ": 5714,
      "åģ¥èº«æĪ¿": 5715,
      "æĥĳ": 5716,
      "æĪĳä»¬ä¼ļ": 5717,
      "çļĦå½¢å¼ı": 5718,
      "é«ĺè´¨éĩı": 5719,
      "çĭ±": 5720,
      "æĺ¾å¾Ĺ": 5721,
      "æ¯ķä¸ļ": 5722,
      "çļĦä¾ĭåŃĲ": 5723,
      "æĹ©æľŁ": 5724,
      "æĭĽèģĺ": 5725,
      "åŀĤ": 5726,
      "æĺ¯ä¸ĸçķĮä¸ĬæľĢ": 5727,
      "æ²ĥ": 5728,
      "èĬĿå£«": 5729,
      "åºĻ": 5730,
      "å®¢æľį": 5731,
      "æł¹æį®æłĩé¢ĺ": 5732,
      "çļĦæķĳèµİ": 5733,
      "æĪĳä»¬åı¯ä»¥çĶ¨": 5734,
      "åºŁå¼ĥ": 5735,
      "èĵĿèī²çļĦ": 5736,
      "äºīè®®": 5737,
      "å»ºçŃĳçī©": 5738,
      "æľīæĹ¶åĢĻ": 5739,
      "åįıè®®": 5740,
      "é½¿": 5741,
      "åıĳéĢģ": 5742,
      "æķ°æį®ä¸Ń": 5743,
      "æĪĺçķ¥": 5744,
      "èĭ¹æŀľåħ¬åı¸": 5745,
      "é£İåħī": 5746,
      "éĿ¢ä¸´çĿĢ": 5747,
      "åĪĳ": 5748,
      "å²Ĺ": 5749,
      "ä½Ĩä¸į": 5750,
      "ä½Ĩä¹Ł": 5751,
      "éĩıåŃĲåĬĽåŃ¦": 5752,
      "å¹¶è¾ĵåĩº": 5753,
      "æĪĳä»¬åľ¨": 5754,
      "å®īåħ¨åĴĮ": 5755,
      "èĿ´": 5756,
      "åĳĪçİ°åĩº": 5757,
      "çļĦæŃĮæĽ²": 5758,
      "æĢ»ä½ĵ": 5759,
      "èħĬ": 5760,
      "ç¿ħ": 5761,
      "åľ¨ç»Ļå®ļçļĦ": 5762,
      "èĿ´èĿ¶": 5763,
      "è¿Ļæ®µè¯Ŀ": 5764,
      "æķ°æį®åĴĮ": 5765,
      "åĲĳéĩı": 5766,
      "åĩºçīĪ": 5767,
      "çļĦæĻ®": 5768,
      "ç»¼ä¸ĬæīĢè¿°": 5769,
      "åĪĨåĪ«æĺ¯": 5770,
      "çļĦåľºæĻ¯": 5771,
      "çŁ¶": 5772,
      "å¼ºåĮĸ": 5773,
      "ob": 5774,
      "è¯¥åı¥åŃĲ": 5775,
      "å¾Į": 5776,
      "å¸ĤåľºèĲ¥éĶĢ": 5777,
      "ä¿®å¤į": 5778,
      "æķħäºĭæĥħèĬĤ": 5779,
      "æĨ": 5780,
      "æĹ©æĻ¨": 5781,
      "ç¢³æİĴæĶ¾": 5782,
      "åĴĮçİ¯å¢ĥ": 5783,
      "æĽ´æŃ£": 5784,
      "è¤": 5785,
      "\"ãĢĤ": 5786,
      "æ¾³": 5787,
      "çļĦåĲįç§°": 5788,
      "äººå·¥æĻºèĥ½æĬĢæľ¯åľ¨": 5789,
      "éĢļçŁ¥": 5790,
      "ä¹Łèĥ½": 5791,
      "æĪĳåĴĮ": 5792,
      "æ¿ĢåĬ±": 5793,
      "æĶ¿æ²»": 5794,
      "åĽ¾æ¡Ī": 5795,
      "ä¸ĢäºĽäºº": 5796,
      "ä¸Ģåħ±": 5797,
      "ç§Ĵ": 5798,
      "å®ŀä½ĵè¯ĨåĪ«": 5799,
      "èĥľåľ°": 5800,
      "ä½Ĩæĺ¯æĪĳ": 5801,
      "è®¾å®ļ": 5802,
      "èĤĸçĶ³åħĭçļĦæķĳèµİ": 5803,
      "å½»": 5804,
      "æ¢ģ": 5805,
      "å¥½åĥı": 5806,
      "å»ºéĢł": 5807,
      "çīĽä»Ķ": 5808,
      "ç»ıèĲ¥": 5809,
      "å¤ªå¤ļ": 5810,
      "çļĦæķ°åŃĹ": 5811,
      "çĶµåŃĲåķĨåĬ¡": 5812,
      "è®©äººæĦŁåĪ°": 5813,
      "æĴ°åĨĻ": 5814,
      "è®©è®¡ç®Ĺæľº": 5815,
      "æĭĴ": 5816,
      "æĪª": 5817,
      "å®¶éĩĮ": 5818,
      "çİ«çĳ°": 5819,
      "äººæķ°": 5820,
      "çİ¯ä¿ĿçļĦ": 5821,
      "æĪĸç¼º": 5822,
      "äººå·¥æĻºèĥ½åĴĮ": 5823,
      "ä¸ªä½ĵ": 5824,
      "æĬĢæľ¯çļĦåıĳå±ķ": 5825,
      "ä¸Ģæ®µå¯¹è¯Ŀ": 5826,
      "çĺ¦": 5827,
      "æĳĦæ°ıåº¦": 5828,
      "åĬłå·¥": 5829,
      "å¾¡": 5830,
      "åı¯ä»¥ä»İ": 5831,
      "åıĳçİ°äºĨ": 5832,
      "å¤±ä¸ļ": 5833,
      "ç«ĭåį³": 5834,
      "èĥ¶": 5835,
      "è±ĨèħĲ": 5836,
      "éĢĶå¾Ħ": 5837,
      "å¿ĹæĦ¿": 5838,
      "çĤī": 5839,
      "æĦıå¤ĸ": 5840,
      "çĪ¶æ¯į": 5841,
      "æĸĩèīº": 5842,
      "çļĦæ°ĶåĢĻ": 5843,
      "ç®ĢåİĨ": 5844,
      "çļĦåĴĸåķ¡": 5845,
      "ç»ĻæĪĳæİ¨èįĲ": 5846,
      "ä¼ĺç¾İ": 5847,
      "çĶµå½±åĲįç§°": 5848,
      "èĥĸ": 5849,
      "å¿ĥèĦıçĹħ": 5850,
      "åĲįåı«": 5851,
      "æĽ¿æį¢ä¸º": 5852,
      "æ©Ħæ¦Ħ": 5853,
      "å¼ķèµ·äºĨ": 5854,
      "çĥ¤ç®±": 5855,
      "éĶħä¸Ń": 5856,
      "è¯·ä»İ": 5857,
      "åħ´è¶£çĪ±å¥½": 5858,
      "çļĦåħ³éĶ®ä¿¡æģ¯": 5859,
      "åıĳè¡¨": 5860,
      "åĲİçļĦåı¥åŃĲ": 5861,
      "çļĦä¸ľè¥¿": 5862,
      "åıĺéĩı": 5863,
      "äººåĴĮ": 5864,
      "èħ¹": 5865,
      "äºĳè®¡ç®Ĺ": 5866,
      "çļĦæİĴæĶ¾": 5867,
      "éĢıæ°Ķ": 5868,
      "èµ°äºĨ": 5869,
      "å½¢æĢģ": 5870,
      "éŀĭåŃĲ": 5871,
      "åĴĮç®¡çĲĨ": 5872,
      "åıĸæ¶Ī": 5873,
      "ä¼ģä¸ļå®¶": 5874,
      "çļĦæ¸©åº¦": 5875,
      "æģ°": 5876,
      "ç§ĳå¹»å°ıè¯´": 5877,
      "åŁºäºİä»¥ä¸Ĭè¿Ļæ®µæĸĩæľ¬": 5878,
      "æº¯": 5879,
      "ðŁ": 5880,
      "åıĺå¾Ĺè¶ĬæĿ¥è¶Ĭ": 5881,
      "çļĦä¸įåĲĮ": 5882,
      "éĢĤçĶ¨äºİ": 5883,
      "æ¯ıä¸ªäººéĥ½åºĶè¯¥": 5884,
      "è¾ĥä¸º": 5885,
      "çĶľçĤ¹": 5886,
      "å¡ĳæĸĻè¢ĭ": 5887,
      "éĿŀå¸¸éĢĤåĲĪ": 5888,
      "çļĦæķ°åŃ¦": 5889,
      "åŀ«": 5890,
      "åįļå®¢": 5891,
      "æĦģ": 5892,
      "å¹¼": 5893,
      "çĶ¢": 5894,
      "ç¾İå¦Ļ": 5895,
      "çĶŁæĢģçİ¯å¢ĥ": 5896,
      "æ°¢": 5897,
      "æ²¡æľīä»»ä½ķ": 5898,
      "è¯·ä¸ºæĪĳ": 5899,
      "æĪĸæĺ¯": 5900,
      "æ©Ł": 5901,
      "çī¹å®ļçļĦ": 5902,
      "åľ°åĿĢ": 5903,
      "çļĦæłĳ": 5904,
      "æĮĩä»¤": 5905,
      "éĺ³åħīæĺİåªļ": 5906,
      "èĻ¾": 5907,
      "å§ľ": 5908,
      "å¦ĤæŀľæĪĳä»¬": 5909,
      "æĸ°æ¬¾": 5910,
      "åĽºå®ļ": 5911,
      "åı¯ä»¥æıĲä¾Ľ": 5912,
      "æķ°æį®è¿Ľè¡Į": 5913,
      "éĽķ": 5914,
      "çļĦæ¤į": 5915,
      "è¢«è§Ĩä¸º": 5916,
      "éĶĻè¯¯è¿Ľè¡Į": 5917,
      "è¿Ļç¯ĩæĸĩç«łçļĦä¸»è¦ģè§ĤçĤ¹": 5918,
      "åĩłç§į": 5919,
      "æĪĲä¸ºä¸Ģä¸ª": 5920,
      "æĪĲçĨŁ": 5921,
      "çļĦæĬ¥": 5922,
      "è¿Ļæĺ¯ä¸Ģéĥ¨": 5923,
      "æĸ°åĨł": 5924,
      "çļĦæ³¨": 5925,
      "æ·±è¿ľçļĦå½±åĵį": 5926,
      "é«ĺçļĦå±±å³°": 5927,
      "åĩıå°ĳä½¿çĶ¨": 5928,
      "éģĹä¼ł": 5929,
      "å¥³åŃĲ": 5930,
      "åĴĮç»ıæµİ": 5931,
      "ä¹ĭä¸Ń": 5932,
      "è¯¦ç»ĨçļĦ": 5933,
      "éŁ§": 5934,
      "æĿīçŁ¶": 5935,
      "æİ¥è¿ĳ": 5936,
      "è¿ĳæľŁ": 5937,
      "è¯·å¸®æĪĳ": 5938,
      "åŁºäºİä»¥ä¸ĭ": 5939,
      "å¾®ç¬ĳ": 5940,
      "è¿Ļä¸ªè¯į": 5941,
      "199": 5942,
      "åħ½": 5943,
      "ä¸įåı¯æĪĸç¼º": 5944,
      "ä¸ĭåĳ¨": 5945,
      "ç³Ł": 5946,
      "åıĳå±ķçļĦ": 5947,
      "è¯Ī": 5948,
      "çļĦäººçī©": 5949,
      "åĮ»åŃ¦å½±åĥı": 5950,
      "ä¹Łå°Ĩ": 5951,
      "å®½æĿ¾": 5952,
      "åĳ¨æľŁ": 5953,
      "éĶ»çĤ¼èº«ä½ĵ": 5954,
      "èĢĥèĻĳåĪ°": 5955,
      "çħ§é¡¾": 5956,
      "ç´łé£Ł": 5957,
      "æĵ¦": 5958,
      "æĢ§æł¼": 5959,
      "ç»³": 5960,
      "èĪį": 5961,
      "åĮħå®¹": 5962,
      "çļĦä»£è¡¨": 5963,
      "ä½łèĥ½åĳĬè¯īæĪĳ": 5964,
      "ä»¥åĲİ": 5965,
      "æĪ¿åŃĲ": 5966,
      "éĴ¢çĲ´": 5967,
      "çªģçł´": 5968,
      "Ġä½ł": 5969,
      "åĨħçļĦ": 5970,
      "çīĩæ®µ": 5971,
      "é©¬æĭī": 5972,
      "çĽĸèĮ¨": 5973,
      "äººä»¬å¯¹": 5974,
      "åľ¨åħ¬åĽŃéĩĮ": 5975,
      "ä¸Ģå°ģ": 5976,
      "åĿļå®ļ": 5977,
      "åİĺç±³": 5978,
      "åĩıèĤ¥": 5979,
      "çļĦæĶ¿": 5980,
      "åĴĮåŃ¦ä¹ł": 5981,
      "è§Ĵèī²ä»ĭç»į": 5982,
      "çļĦç¤¼": 5983,
      "é¸ŁåĦ¿": 5984,
      "Ġ(": 5985,
      "çļĦæ³ķå¾ĭ": 5986,
      "åĸĦèī¯": 5987,
      "èĶ¬èıľåĴĮ": 5988,
      "åĴĮæĬĢèĥ½": 5989,
      "å¸ĿåĽ½": 5990,
      "å·¾": 5991,
      "æľ¬è´¨": 5992,
      "ä»Ķç»Ĩ": 5993,
      "çļĦæľĢä½³": 5994,
      "çļĦè¡¨çİ°": 5995,
      "éľĢè¦ģè¿Ľè¡Į": 5996,
      "å»ºç«ĭä¸Ģä¸ª": 5997,
      "è¸ı": 5998,
      "ç§ĳæĬĢåħ¬åı¸": 5999,
      "çļĦæµ·æ»©": 6000,
      "å°ıæĺİåĴĮå°ıçº¢": 6001,
      "æľ¯è¯Ń": 6002,
      "ä»¥åīį": 6003,
      "å¤ļæ¬¡": 6004,
      "è¾ĥé«ĺ": 6005,
      "åı¯ä»¥å¸®åĬ©åĮ»çĶŁ": 6006,
      "åīĳ": 6007,
      "çį": 6008,
      "--": 6009,
      "åĩıåİ»": 6010,
      "å¹½é»ĺ": 6011,
      "èĥ¡æ¤Ĵ": 6012,
      "å¹¶ä½¿çĶ¨": 6013,
      "åľŁè±Ĩ": 6014,
      "å½ĵæĪĳ": 6015,
      "è¡¥åħħ": 6016,
      "ç»Ļå®ļä¸Ģç¯ĩæĸĩç«ł": 6017,
      "çļĦç¨ĭåºı": 6018,
      "ä¸įçĶ¨": 6019,
      "çļĦç¬ĳ": 6020,
      "èªīä¸º": 6021,
      "ç¬¬ä¸Ģæ¬¡": 6022,
      "åī©ä½Ļ": 6023,
      "å±ķçİ°äºĨ": 6024,
      "æĢ§è´¨": 6025,
      "å¹¿éĺĶ": 6026,
      "åĩłä¹İ": 6027,
      "æľ¨æĺŁ": 6028,
      "å¤ĸè§Ĥ": 6029,
      "æ¯ıä¸ªäººçļĦ": 6030,
      "çļĦåŃ£èĬĤ": 6031,
      "æĤłä¹ħ": 6032,
      "æĮº": 6033,
      "åĨ°å·Ŀ": 6034,
      "æ¯ıä¸Ģä¸ª": 6035,
      "çļĦå¸®åĬ©": 6036,
      "ä¸Ģæ¬¡æĢ§": 6037,
      "æĮĩæłĩ": 6038,
      "åĿļæŀľ": 6039,
      "åĪĽéĢłä¸Ģä¸ª": 6040,
      "ç¥ŀå¥ĩ": 6041,
      "å¤ļå½©": 6042,
      "åİŁæĿ¥": 6043,
      "èı²å°Ķ": 6044,
      "éĻĪè¿°åı¥": 6045,
      "ä¸ĸçķĮä¸Ĭ": 6046,
      "çļĦæīĭæľº": 6047,
      "ç»ŃåĨĻåı¤è¯Ĺ": 6048,
      "çī©æµģ": 6049,
      "è¿ģ": 6050,
      "åĬłå¯Ĩ": 6051,
      "åĻª": 6052,
      "ä¼ĺéĽħ": 6053,
      "æ¡ĮåŃĲ": 6054,
      "çİĭæĺŁ": 6055,
      "æ¸ł": 6056,
      "è¿Ŀåıį": 6057,
      "çĶµå½±è¯Ħè®º": 6058,
      "oo": 6059,
      "ä¸įéĶĻçļĦéĢīæĭ©": 6060,
      "ç»Ĩèħ»": 6061,
      "åĬłåī§": 6062,
      "å«Įçĸĳ": 6063,
      "å¯¹å¾ħ": 6064,
      "åľ°éĵģ": 6065,
      "çĸı": 6066,
      "å®³æĢķ": 6067,
      "ç§ĺå¯Ĩ": 6068,
      "åĪ¸": 6069,
      "å¹¿æ³ĽçļĦ": 6070,
      "çĶ¨æĪ·çļĦ": 6071,
      "èĪªç©º": 6072,
      "èĤ©": 6073,
      "æľ¬å°ıè¯´": 6074,
      "è®©å®ĥ": 6075,
      "æĭħä»»": 6076,
      "åıĸåĩº": 6077,
      "æ¯Ķå¦Ĥè¯´": 6078,
      "ä¼į": 6079,
      "åķı": 6080,
      "è¿ĻäºĽæĬĢæľ¯": 6081,
      "æ´ĽæĿīçŁ¶": 6082,
      "æ¯Ķäºļ": 6083,
      "çİ°çĬ¶": 6084,
      "æĿ¥åĩıå°ĳ": 6085,
      "æĢ»ç»ĵä¸Ģä¸ĭ": 6086,
      "éļĨ": 6087,
      "ç®¡çĲĨåĴĮ": 6088,
      "éĥ½å¾Ī": 6089,
      "åı¯è¯»": 6090,
      "ä½łåı¯ä»¥å°Ŀè¯ķ": 6091,
      "èĨĢ": 6092,
      "æłĳæľ¨": 6093,
      "åĮħåĲ«äºĨ": 6094,
      "åĴĮæµ·": 6095,
      "é¢ĳçİĩ": 6096,
      "å¨ģå¤·": 6097,
      "åħ¨éĥ¨": 6098,
      "æĢİä¹Īåģļ": 6099,
      "æĺŁæĺŁ": 6100,
      "ç¿ł": 6101,
      "æĸĩæľ¬ä¸ŃçļĦåħ³éĶ®è¯į": 6102,
      "åĳĢ": 6103,
      "çļĦç¡": 6104,
      "ä¸ºæĪĳä»¬": 6105,
      "å¤ıå¨ģå¤·": 6106,
      "éŁ¿": 6107,
      "èĥĨ": 6108,
      "ä¿ĿæĮģèº«ä½ĵåģ¥åº·": 6109,
      "DNA": 6110,
      "éĩįè¦ģçļĦä½ľçĶ¨": 6111,
      "ç¿Ĵ": 6112,
      "ä¸ĭä¸Ģä¸ª": 6113,
      "çļĦæ¯ĶèµĽ": 6114,
      "å¤ļå¹´": 6115,
      "æ¡¶": 6116,
      "çļĦæĢĿç»´": 6117,
      "å¯Ĩåº¦": 6118,
      "äººå·¥æĻºèĥ½åı¯ä»¥": 6119,
      "æĭĵå±ķ": 6120,
      "çļĦåĬŁèĥ½": 6121,
      "ä¸»åĬ¨": 6122,
      "å±ķç¤ºäºĨ": 6123,
      "æĢ§éĹ®é¢ĺ": 6124,
      "ç½²": 6125,
      "ä¸Ĭæĺł": 6126,
      "å¤§æĪĺ": 6127,
      "éĵģå¡Ķ": 6128,
      "è¯¦ç»ĨåĽŀçŃĶ": 6129,
      "åĺ´": 6130,
      "çļĦéĢŁåº¦": 6131,
      "è®¤åı¯": 6132,
      "å§Ĩæĸ¯": 6133,
      "è¿ĺè¦ģ": 6134,
      "èĮ«": 6135,
      "ç»µ": 6136,
      "åŀĥåľ¾éĤ®ä»¶": 6137,
      "ä»£è°¢": 6138,
      "é»Ľ": 6139,
      "åĩĨå¤ĩå¥½": 6140,
      "å½ĵæĪĳä»¬": 6141,
      "çļĦçł´": 6142,
      "çļĦæĢĿèĢĥ": 6143,
      "å¯Ħ": 6144,
      "ä¸ĬçıŃ": 6145,
      "åĴĮèĶ¬èıľ": 6146,
      "70": 6147,
      "å¹²æī°": 6148,
      "è¡°": 6149,
      "æĹĹ": 6150,
      "æĭ¥åłµ": 6151,
      "çļĦå®ļä¹ī": 6152,
      "æ¸´": 6153,
      "Ja": 6154,
      "åĮĹäº¬å¸Ĥ": 6155,
      "æĬĳéĥģ": 6156,
      "çĨŁæĤī": 6157,
      "æľīæ°§è¿ĲåĬ¨": 6158,
      "çŃīå¤ļç§į": 6159,
      "çļĦç©ºæ°Ķ": 6160,
      "åģļèµ·": 6161,
      "ä»ĩ": 6162,
      "çĸ¾çĹħçļĦ": 6163,
      "ä¹ĺåĿĲ": 6164,
      "è¿Ļä¸¤": 6165,
      "æ¶Į": 6166,
      "ä»Ĭå¤©çļĦå¤©æ°Ķ": 6167,
      "è¿Ļæł·åı¯ä»¥": 6168,
      "åħ¼": 6169,
      "çļĦä¸Ģæ®µå¯¹è¯Ŀ": 6170,
      "æľĢéĢĤåĲĪ": 6171,
      "æ¨ª": 6172,
      "éļ¾é¢ĺ": 6173,
      "ç¼ĸç¨ĭè¯Ńè¨Ģ": 6174,
      "åķ¦": 6175,
      "ĠAI": 6176,
      "åģļä¸ĢäºĽ": 6177,
      "åĨĮ": 6178,
      "çĽ¸çŃī": 6179,
      "æĺ¯ä¸ºäºĨ": 6180,
      "è¡¬è¡«": 6181,
      "åŃ¦ä¹łæĸ°": 6182,
      "ç»ĺçĶ»": 6183,
      "æĸĩæľ¬åĪĨç±»": 6184,
      "å¹³éĿĻ": 6185,
      "åĩºçİ°åľ¨": 6186,
      "çļĦèĩªçĦ¶": 6187,
      "èľľèľĤ": 6188,
      "ç±»ä¼¼äºİ": 6189,
      "çļĦç¾İæĻ¯": 6190,
      "éľĢè¦ģåľ¨": 6191,
      "è¢Ń": 6192,
      "çļĦèĭ¹æŀľ": 6193,
      "åĴĮå¯¹": 6194,
      "åĿ¡": 6195,
      "åį±æľº": 6196,
      "çĲ³": 6197,
      "å°±èĥ½": 6198,
      "ä¸ĭéĿ¢çļĦæĸĩæľ¬": 6199,
      "ä¹Ĳè§Ĥ": 6200,
      "ç´łè´¨": 6201,
      "æģĴæĺŁ": 6202,
      "Ġä½¿çĶ¨": 6203,
      "åľ°çĲĥä¸Ĭ": 6204,
      "éĢīæĭ©éĢĤåĲĪ": 6205,
      "åħ¶ä¸Ńä¸Ģä¸ª": 6206,
      "å¹²æĹ±": 6207,
      "å¿į": 6208,
      "æĤ²ä¼¤": 6209,
      "äººä»¬åľ¨": 6210,
      "ç¾İåĽ½æĢ»ç»Ł": 6211,
      "æ°Ľ": 6212,
      "çĶ·äºº": 6213,
      "å·²ç»ıåľ¨": 6214,
      "åĬŀæ³ķ": 6215,
      "ä¸ªåŃĹ": 6216,
      "æµĨ": 6217,
      "ç¿»è¯ĳæĪĲçİ°ä»£": 6218,
      "çļĦè§ĤçĤ¹": 6219,
      "çĮ´": 6220,
      "å®ĮæĪĲä»»åĬ¡": 6221,
      "ä¸»æ¼Ķ": 6222,
      "æĪĳçĽ¸ä¿¡": 6223,
      "ç½Ĺé©¬": 6224,
      "å¦Ĥä»Ĭ": 6225,
      "éĽĩ": 6226,
      "è½¨éģĵ": 6227,
      "è´·": 6228,
      "æĢĴ": 6229,
      "é£İåĲ¹": 6230,
      "åħ¶ä»ĸäºº": 6231,
      "ç»Ļä½łä¸¤ä¸ª": 6232,
      "éĢĽ": 6233,
      "çĵ¦": 6234,
      "çļĦæ°Ķæģ¯": 6235,
      "è¢«èªīä¸º": 6236,
      "éĿ¢ç²ī": 6237,
      "æĶ¾ç½®": 6238,
      "æĹĭå¾ĭ": 6239,
      "åĩĮ": 6240,
      "å¯¹è¯Ŀä¸Ń": 6241,
      "èĢĲå¿ĥ": 6242,
      "è¿½æº¯": 6243,
      "æĸĩæľ¬çºłéĶĻ": 6244,
      "æī¿æĭħ": 6245,
      "æıĲåıĸä¸Ģä¸ĭ": 6246,
      "ç¿»è¯ĳæĪĲæĸĩè¨Ģæĸĩ": 6247,
      "å¯¹æĸĩæľ¬éĶĻè¯¯è¿Ľè¡Į": 6248,
      "ä»¥ä¸ĭåĩłä¸ª": 6249,
      "å®īåħ¨æĢ§": 6250,
      "èĪĴéĢĤçļĦ": 6251,
      "ç¿»è¯ĳæĪĲçİ°ä»£æĸĩ": 6252,
      "å®´": 6253,
      "åĴĮå°ı": 6254,
      "æ·±æ·±": 6255,
      "æĹĭè½¬": 6256,
      "ä¿¡çĶ¨": 6257,
      "æ²³æµģ": 6258,
      "åĲİæĿ¥": 6259,
      "åı£åı·": 6260,
      "åĮ¹éħį": 6261,
      "è¯ŃæĢģ": 6262,
      "çĳŁ": 6263,
      "çļĦåħī": 6264,
      "éĢĲæŃ¥": 6265,
      "å¸ħ": 6266,
      "AP": 6267,
      "éĹ®é¢ĺåĴĮ": 6268,
      "è¿Ļä¸ªæĸĩæľ¬": 6269,
      "å®ļå¾ĭ": 6270,
      "æł¹æį®ä»¥ä¸Ĭ": 6271,
      "æłĩçĤ¹ç¬¦åı·": 6272,
      "ç²¾èĩ´": 6273,
      "ä¸´åºĬ": 6274,
      "æĲľç´¢å¼ķæĵİ": 6275,
      "çļĦæĢĿæĥ³": 6276,
      "çľĭçĿĢ": 6277,
      "å¹¶å¯¹": 6278,
      "çĶŁæĪĲä»ĸä»¬ä¹ĭéĹ´": 6279,
      "åľĨå½¢": 6280,
      "ç¼ĸè¾ĳä¸ĭéĿ¢": 6281,
      "è¯¦ç»Ĩä¸°å¯Į": 6282,
      "å®¢è§Ĥ": 6283,
      "è¦ģæ±Ĥå¯¹è¯ĿåĨħå®¹": 6284,
      "è§Ĵèī²ä¿¡æģ¯å¦Ĥä¸ĭ": 6285,
      "ç»Ļä½łä¸¤ä¸ªè§Ĵèī²ä¿¡æģ¯å¦Ĥä¸ĭ": 6286,
      "çĶŁæĪĲä»ĸä»¬ä¹ĭéĹ´çļĦä¸Ģæ®µå¯¹è¯Ŀ": 6287,
      "è¦ģæ±Ĥå¯¹è¯ĿåĨħå®¹è¯¦ç»Ĩä¸°å¯Į": 6288,
      "å©ļç¤¼": 6289,
      "å®ĥä»¬åľ¨": 6290,
      "åĩıè½»åİĭåĬĽ": 6291,
      "æĿľ": 6292,
      "åħĭæĸ¯": 6293,
      "æľºåĻ¨åŃ¦ä¹łåĴĮ": 6294,
      "ä¸Ńåįİ": 6295,
      "ä¿¡æģ¯åĴĮ": 6296,
      "çĶŁæĪĲä¸Ģé¦ĸ": 6297,
      "ä»¥éģ¿åħį": 6298,
      "çľĭäºĨ": 6299,
      "Ġä»ĸ": 6300,
      "è¡¨è¾¾æĸ¹å¼ı": 6301,
      "æłĳåı¶": 6302,
      "æĶ¹éĿ©": 6303,
      "çļĦçĤ": 6304,
      "çĶŁåĳ½çļĦ": 6305,
      "æ°Ķè±¡": 6306,
      "æĺ¯ä¸Ģä¸ªéĿŀå¸¸": 6307,
      "è®©ä»ĸä»¬": 6308,
      "èĬĤçľģ": 6309,
      "åĲ¦å®ļ": 6310,
      "éĹ¹": 6311,
      "ä¸ĸçķĮæĿ¯": 6312,
      "åĲ«éĩı": 6313,
      "åħ±åĲĮåĬªåĬĽ": 6314,
      "éĿ¢æĿ¡": 6315,
      "å¦ĤæŀľæĤ¨éľĢè¦ģ": 6316,
      "å¯¦": 6317,
      "ç®Ģæĺİ": 6318,
      "ç»Ŀå¯¹": 6319,
      "äºĨä¸Ģåľº": 6320,
      "åĽ´ç»ķ": 6321,
      "åľ¨è¿Ļç§į": 6322,
      "è¾¾æĪĲ": 6323,
      "èįīåİŁ": 6324,
      "ç»ĦæĪĲçļĦ": 6325,
      "¬éĹ´": 6326,
      "å¥¹åľ¨": 6327,
      "åĴĮä½¿çĶ¨": 6328,
      "æĹłæķ°": 6329,
      "èĢģäºº": 6330,
      "æľĢéĩįè¦ģçļĦæĺ¯": 6331,
      "è®©æĤ¨": 6332,
      "ĸæģ¯åľ°": 6333,
      "Ġè¿Ļä¸ª": 6334,
      "åĮĻ": 6335,
      "åįĵè¶Ĭ": 6336,
      "çļĦæĲ": 6337,
      "åĳ½è¿Ĳ": 6338,
      "å¦ĤæŀľæĤ¨åĸľæ¬¢": 6339,
      "æľīäºĨ": 6340,
      "è·Łè¸ª": 6341,
      "é¢ĳç¹ģ": 6342,
      "éĨĭ": 6343,
      "è¿ĩæ»¤": 6344,
      "æŀļ": 6345,
      "åĢ¡": 6346,
      "èģĶçĽŁ": 6347,
      "èĤĿ": 6348,
      "è¿Ļç¯ĩæĸĩç«łä¸»è¦ģ": 6349,
      "åħ¨çĲĥæ°ĶåĢĻåıĺåĮĸ": 6350,
      "éħ·": 6351,
      "èĽĩ": 6352,
      "åı¯ä»¥çĶ¨æĿ¥": 6353,
      "å¼¯": 6354,
      "ä¸ĸçķĮçļĦ": 6355,
      "çµ±": 6356,
      "å½±éŁ¿": 6357,
      "çļĦæ³¨æĦı": 6358,
      "é«ĺæ¸©": 6359,
      "ç»ĵæŀĦåĴĮ": 6360,
      "å¿ĥè¡Ģç®¡": 6361,
      "ç¬Ķè®°": 6362,
      "ä¹ĭæĥħ": 6363,
      "1000": 6364,
      "è¶ĬæĿ¥è¶Ĭå¤ļçļĦ": 6365,
      "åĴĮä»ĸçļĦ": 6366,
      "åĨĽäºĭ": 6367,
      "çĽĳçĿ£åŃ¦ä¹ł": 6368,
      "åģļä»Ģä¹Ī": 6369,
      "åĳ½åĲį": 6370,
      "éħįåĲĪ": 6371,
      "åħįè´¹": 6372,
      "åľ°åĮºçļĦ": 6373,
      "èº«ä¸Ĭ": 6374,
      "è¿½éĢĲ": 6375,
      "æĺ¯ä»Ģä¹ĪæĦıæĢĿ": 6376,
      "çļĦéĥ¨åĪĨ": 6377,
      "èµ¢å¾ĹäºĨ": 6378,
      "¯æķĳ": 6379,
      "åĽłä¸ºæĪĳ": 6380,
      "çļĦæ¤įçī©": 6381,
      "ä¸ĭåİ»": 6382,
      "æĪĲä¸ºä¸ĢåĲį": 6383,
      "ç°": 6384,
      "æĿ¥è®¡ç®Ĺ": 6385,
      "åħ¥æīĭ": 6386,
      "åı¥åŃĲä¸ŃçļĦ": 6387,
      "æł¼å¼ı": 6388,
      "å®ĿèĹı": 6389,
      "è¿ŀè´¯": 6390,
      "è¿ĺä¼ļ": 6391,
      "æ¯Ķçī¹": 6392,
      "ä¸Ģä¸ªéĹ®é¢ĺ": 6393,
      "èĩªçĦ¶è¯Ńè¨Ģå¤ĦçĲĨæĬĢæľ¯": 6394,
      "çĶŁäº§åĬĽ": 6395,
      "ä½¿è®¡ç®Ĺæľº": 6396,
      "æľīå¤ļå°ĳ": 6397,
      "çº¿ä¸Ĭ": 6398,
      "çļĦé¤Ĳåİħ": 6399,
      "ç©ºä¸Ń": 6400,
      "èĢĮæĪĲ": 6401,
      "çķ¶": 6402,
      "åĪ¶éĢłä¸ļ": 6403,
      "çĽ¸äºĴä½ľçĶ¨": 6404,
      "äººå·¥æĻºèĥ½æĬĢæľ¯çļĦ": 6405,
      "çº¢æŁ¿": 6406,
      "èīºæľ¯åĵģ": 6407,
      "å¹´äºº": 6408,
      "æĦŁè°¢æĤ¨": 6409,
      "æľ±": 6410,
      "ä¸įåºĶè¯¥": 6411,
      "è¥¿çĵľ": 6412,
      "åħĥéĴ±": 6413,
      "è¾Ĳ": 6414,
      "çļĦæ©": 6415,
      "åĪĨè§£": 6416,
      "åİ¦": 6417,
      "...": 6418,
      "æĿ¥è¿Ľè¡Į": 6419,
      "ä¸ºä»¥ä¸ĭ": 6420,
      "ç»ĵå±Ģ": 6421,
      "å¤ĸæĺŁ": 6422,
      "ä¸ĭéĿ¢çļĦéĹ®é¢ĺ": 6423,
      "ä¼Łå¤§çļĦ": 6424,
      "è¥¿çº¢æŁ¿": 6425,
      "çĶµå½±éĻ¢": 6426,
      "æ»ĭ": 6427,
      "çĶŁæ´»åľ¨": 6428,
      "å¼ķèµ·çļĦ": 6429,
      "æĶ¿åºľåĴĮ": 6430,
      "åıī": 6431,
      "å¸ĮèħĬ": 6432,
      "ä¿®èº«": 6433,
      "çºªå¿µ": 6434,
      "çĽĳæİ§": 6435,
      "æ£ĴäºĨ": 6436,
      "è¿ĲèĲ¥": 6437,
      "çļĦæĤ": 6438,
      "æ´¾å¯¹": 6439,
      "å®ĭ": 6440,
      "æĸĩåŃ¦ä½ľåĵģ": 6441,
      "éĢĻåĢĭ": 6442,
      "çļĦçģ«": 6443,
      "åħ·ä½ĵæĿ¥è¯´": 6444,
      "èķ´åĲ«": 6445,
      "å¾Īæľīè¶£": 6446,
      "çĶŁæ¶¯": 6447,
      "æĪĳä»¬åı¯ä»¥éĢļè¿ĩ": 6448,
      "è¿Ļæĺ¯ä¸Ģç§į": 6449,
      "åħįçĸ«åĬĽ": 6450,
      "çļĦæ»": 6451,
      "æ¶Īå¤±": 6452,
      "ä¹ĭä¸Ģæĺ¯": 6453,
      "çĽ¸åĲĮçļĦ": 6454,
      "21": 6455,
      "æĤŁ": 6456,
      "å®¢äºº": 6457,
      "ä¸ĬåįĪ": 6458,
      "èĤ¿": 6459,
      "çļĦçı": 6460,
      "Bob": 6461,
      "XXX": 6462,
      "2019": 6463,
      "çĭĲ": 6464,
      "ç©ºæ°Ķæ±¡æŁĵ": 6465,
      "æĭ¯æķĳ": 6466,
      "çĩĥçĥ§": 6467,
      "å¤ªæ£ĴäºĨ": 6468,
      "æĮĳæĪĺåĴĮ": 6469,
      "è®²ä¸Ģä¸ª": 6470,
      "äººéĻħåħ³ç³»": 6471,
      "æĪĳåİ»äºĨ": 6472,
      "åĨĻè¯Ĺ": 6473,
      "æľīæīĢä¸įåĲĮ": 6474,
      "Ġå½ĵçĦ¶": 6475,
      "æ¹¾": 6476,
      "äººå·¥æĻºèĥ½å°Ĩ": 6477,
      "è£¡": 6478,
      "åĬłåħ¥ä¸ĢäºĽ": 6479,
      "çªĥ": 6480,
      "æĥħåĴĮ": 6481,
      "è¯¥çĶµå½±": 6482,
      "ä¸ªåįķè¯į": 6483,
      "åİ»åħ¬åĽŃ": 6484,
      "ä»İäºĭ": 6485,
      "å®ĮæĪĲä¸Ģæ®µå¯¹è¯Ŀ": 6486,
      "æĶ¶åĪ°": 6487,
      "æĽ´å¤§çļĦ": 6488,
      "ä¸ĵä¸ļçļĦ": 6489,
      "åĩłä¸ªèĭ¹æŀľ": 6490,
      "é¡ºåĪ©": 6491,
      "è§Ĵèī²ä¿¡æģ¯å®ĮæĪĲä¸Ģæ®µå¯¹è¯Ŀ": 6492,
      "åŁºäºİä»¥ä¸ĭè§Ĵèī²ä¿¡æģ¯å®ĮæĪĲä¸Ģæ®µå¯¹è¯Ŀ": 6493,
      "ä¿®é¥°": 6494,
      "è¿Ļä»¶": 6495,
      "å¹¶æıĲé«ĺ": 6496,
      "ä¸įéĢĤ": 6497,
      "ä½łä¹Łåı¯ä»¥": 6498,
      "å¥½å¥ĩ": 6499,
      "å¸Ĥåľºä¸Ĭ": 6500,
      "åı¤èĢģçļĦ": 6501,
      "æĪĴ": 6502,
      "é²¸é±¼": 6503,
      "æĬ¢": 6504,
      "ä½ľèĢħå¯¹": 6505,
      "ç»ĵå°¾": 6506,
      "ä¸Ģæ®µæĸĩåŃĹ": 6507,
      "åı¯ä»¥å¸®åĬ©äººä»¬": 6508,
      "ä½łèĥ½å¸®æĪĳ": 6509,
      "åĲ¯åıĳ": 6510,
      "è·Į": 6511,
      "ç»ĻæĪĳä»¬": 6512,
      "å¼ķäººåħ¥": 6513,
      "åĲĲ": 6514,
      "æŀģæĢ§": 6515,
      "æ±Ĺ": 6516,
      "çģ£": 6517,
      "å¾ŀ": 6518,
      "è´¨éĩıåĴĮ": 6519,
      "æĤ¨åı¯ä»¥å°Ŀè¯ķ": 6520,
      "åĮĸçŁ³çĩĥæĸĻ": 6521,
      "ä¸Ģåº§": 6522,
      "å®ĺæĸ¹": 6523,
      "çļĦçĹĩ": 6524,
      "çĸĳéĹ®åı¥": 6525,
      "é±¼ç±»": 6526,
      "æľĭåıĭä»¬": 6527,
      "è¯ķéªĮ": 6528,
      "æħ°": 6529,
      "æ½ľåĬĽ": 6530,
      "çĶŁçī©å¤ļæł·æĢ§": 6531,
      "çĶŁæĪĲä¸Ģä»½": 6532,
      "ç¢§": 6533,
      "é«ĺéĢŁ": 6534,
      "äºĮåįģ": 6535,
      "çļĦå¤©æ°Ķé¢ĦæĬ¥": 6536,
      "é¥®é£ŁåĴĮ": 6537,
      "æĿ¥äºĨ": 6538,
      "åħ³æ³¨åĴĮ": 6539,
      "è¨Ī": 6540,
      "å·¥ä½ľçļĦ": 6541,
      "å¼ķäººåħ¥èĥľ": 6542,
      "åĲ´": 6543,
      "æ²®": 6544,
      "è¾Ĳå°Ħ": 6545,
      "åĴĮçĽ®æłĩ": 6546,
      "åĴĮåĪĽæĸ°": 6547,
      "èĢģèĻİ": 6548,
      "æĮ«": 6549,
      "çĵ·": 6550,
      "åĿĽ": 6551,
      "æĺİæ²»": 6552,
      "å°ıéķĩ": 6553,
      "åħ³å¿ĥ": 6554,
      "è¿ŀç»Ń": 6555,
      "çļĦç²¾ç¥ŀ": 6556,
      "æ·±åĪ»çļĦ": 6557,
      "åĴĮç»ıéªĮ": 6558,
      "é¥®åĵģ": 6559,
      "æĬ¹": 6560,
      "çĶŁæĪĲä¸Ģæ®µä»ĸä»¬çļĦå¯¹è¯ĿåĨħå®¹": 6561,
      "åĴĮèµĦæºĲ": 6562,
      "åĲĪçĲĨçļĦ": 6563,
      "è°ĥæĸĻ": 6564,
      "æķĻæİĪ": 6565,
      "åĲĥé¥Ń": 6566,
      "åı¥åŃĲçļĦ": 6567,
      "ä¸įåŃĺåľ¨å®ŀä½ĵ": 6568,
      "åĨĻçļĦæĸĩç«ł": 6569,
      "è¿ĺåī©": 6570,
      "æ¸ħæ´Ĺ": 6571,
      "è¿Ļä¸ªéĹ®é¢ĺçļĦçŃĶæ¡Ī": 6572,
      "çļĦæķ°æį®éĽĨ": 6573,
      "çļĦçł´åĿı": 6574,
      "is": 6575,
      "å®¢åİħ": 6576,
      "éĢĶä¸Ń": 6577,
      "çļĦè¯Ħä»·": 6578,
      "ç§ĳæĬĢåĪĽæĸ°": 6579,
      "æľºæ¢°": 6580,
      "è¿ĳæĹ¥": 6581,
      "èĸª": 6582,
      "çļĦé£Łåĵģ": 6583,
      "æĽ´æ·±åħ¥": 6584,
      "æĺ¯æŃ£éĿ¢": 6585,
      "ä¹ŁåºĶè¯¥": 6586,
      "æĪĸçŁŃè¯Ń": 6587,
      "è´¦æĪ·": 6588,
      "æ²īæµ¸": 6589,
      "å¦Ĥä½ķæıĲé«ĺ": 6590,
      "ç»ıåħ¸çļĦ": 6591,
      "çĥĺ": 6592,
      "æĤ¨åı¯ä»¥åľ¨": 6593,
      "æĽ´åħ·": 6594,
      "èľĤèľľ": 6595,
      "è¿Ļéĥ¨": 6596,
      "ç«ŀäºīåĬĽ": 6597,
      "æİ¢æµĭ": 6598,
      "ä¼łç»ŁæĸĩåĮĸ": 6599,
      "è´¢äº§": 6600,
      "èĢĮåľ¨": 6601,
      "å¥ĩæĢª": 6602,
      "é¢Ŀå¤ĸ": 6603,
      "æĽ´é«ĺæķĪ": 6604,
      "åĲ¦åĪĻ": 6605,
      "éĨĩ": 6606,
      "ç®Ń": 6607,
      "å§¿åĬ¿": 6608,
      "è¨Ń": 6609,
      "åĽŀçŃĶä»¥ä¸ĭéĹ®é¢ĺ": 6610,
      "ç¨Ģ": 6611,
      "æ©Ħæ¦Ħæ²¹": 6612,
      "å°ıçĲĥ": 6613,
      "å¾ĹåĪĨ": 6614,
      "è¯·æ³¨æĦı": 6615,
      "æł·æľ¬": 6616,
      "æ¸łéģĵ": 6617,
      "å¸®ä½ł": 6618,
      "çļĦæĦıè§ģ": 6619,
      "çļĦçĹĩçĬ¶": 6620,
      "ç³Łç³ķ": 6621,
      "åĽ°å¢ĥ": 6622,
      "ä½¿åħ¶æĽ´åĬłç®Ģæ´ģæĺİäºĨ": 6623,
      "å°ıå¿ĥ": 6624,
      "ä»¥åħį": 6625,
      "æĽ°": 6626,
      "æģ¨": 6627,
      "çļĦä¸Ńå¿ĥ": 6628,
      "èµ·äºĨ": 6629,
      "åıĳçĶŁäºĨ": 6630,
      "éĩįè¦ģæĢ§": 6631,
      "æ¢¯": 6632,
      "å²ģæľĪ": 6633,
      "è¿ĩå¤ļ": 6634,
      "äººç¾¤": 6635,
      "æ¨£": 6636,
      "éĴĵ": 6637,
      "æŃ£æĸĩ": 6638,
      "å°ºå¯¸": 6639,
      "çļĦåŃ¦çĶŁ": 6640,
      "éĢĿ": 6641,
      "ä¸ºäººç±»": 6642,
      "å¹¶çĶ¨": 6643,
      "æĥĬåı¹": 6644,
      "åĩıå°ĳæ±¡æŁĵ": 6645,
      "ä¸Ģå®ļä¼ļ": 6646,
      "èĪĴæľį": 6647,
      "æĺŁéĻħ": 6648,
      "åıĳçĶŁåľ¨": 6649,
      "åĲįè¨Ģ": 6650,
      "åı¯ä»¥åĪĨåĪ°": 6651,
      "åı¬": 6652,
      "æĹłèģĬ": 6653,
      "åĲĦèĩª": 6654,
      "å®ı": 6655,
      "å±Ĭ": 6656,
      "æ²Ļæ¼ł": 6657,
      "ä¾ĿçĦ¶": 6658,
      "çļĦæį": 6659,
      "è¿ĽåĮĸ": 6660,
      "84": 6661,
      "ä¸Ńæī¾åĪ°": 6662,
      "ä¹Łåı¯èĥ½": 6663,
      "å¹¿åľº": 6664,
      "çļĦç»ıåİĨ": 6665,
      "è¿ĻäºĽæĸ¹æ³ķ": 6666,
      "Ġå¦Ĥæŀľ": 6667,
      "è°¨æħİ": 6668,
      "åĲ¸å¼ķäºĨ": 6669,
      "æ±īåł¡": 6670,
      "çļĦæľªæĿ¥": 6671,
      "æĺ¥èĬĤ": 6672,
      "å¾Īé«ĺ": 6673,
      "æľīæīĢå¸®åĬ©": 6674,
      "æ²®ä¸§": 6675,
      "çļĦå¤§å°ı": 6676,
      "ĠĊ": 6677,
      "ä¹Łæ²¡æľī": 6678,
      "ä»Ĭå¤©æĹ©ä¸Ĭ": 6679,
      "ä¸įåĸľæ¬¢": 6680,
      "ä»¥åıĬå¦Ĥä½ķ": 6681,
      "çļĦæĻ¯èī²": 6682,
      "es": 6683,
      "å¤±èĲ½": 6684,
      "æĵļ": 6685,
      "ç½Ĺæĸ¯": 6686,
      "è¯·æĢ»ç»ĵ": 6687,
      "å¹¶ä¸İ": 6688,
      "è¯·æĤ¨": 6689,
      "çļĦçĪ¶": 6690,
      "çıĬ": 6691,
      "å¹²çĩ¥": 6692,
      "ç»ıéªĮåĴĮ": 6693,
      "éĿĴå¹´": 6694,
      "èĥİ": 6695,
      "åĦ¿åŃĲ": 6696,
      "el": 6697,
      "åĲĮæĦı": 6698,
      "åĴĸåķ¡åĽł": 6699,
      "æł¹æį®é¢ĺçĽ®": 6700,
      "å¹¶éĢļè¿ĩ": 6701,
      "å¤´èĦĳ": 6702,
      "åľ¨æŁĲäºĽ": 6703,
      "ä¹Ķæ²»": 6704,
      "èµĦäº§": 6705,
      "éĵĥ": 6706,
      "2018": 6707,
      "çĶ¨é¤Ĳ": 6708,
      "çļĦæĽ´": 6709,
      "èĬ±æľµ": 6710,
      "è¿Ļä¸¤ä¸ªåı¥åŃĲ": 6711,
      "å¤§éĥ¨åĪĨ": 6712,
      "è¿ĺæ²¡æľī": 6713,
      "éĢĤéĩıçļĦ": 6714,
      "çļĦç½ĳç«Ļ": 6715,
      "al": 6716,
      "åĴĮæĪĳ": 6717,
      "ä½łæľī": 6718,
      "æīĢéľĢçļĦ": 6719,
      "çĶ¨æ°´": 6720,
      "æĸ¹ç¨ĭ": 6721,
      "å¼ºçļĦ": 6722,
      "æīĢæľīäºº": 6723,
      "è®©ä»ĸ": 6724,
      "åĽłä¸ºä»ĸ": 6725,
      "åĸĦäºİ": 6726,
      "ä¸īæĺİæ²»": 6727,
      "çĩķéº¦": 6728,
      "å£®è§Ĥ": 6729,
      "é¦Ļæ°Ķ": 6730,
      "å©´åĦ¿": 6731,
      "åĴĮä¿¡æģ¯": 6732,
      "äººå·¥æĻºèĥ½æĺ¯ä¸Ģç§į": 6733,
      "éĺ²æĻĴ": 6734,
      "ç¿¼": 6735,
      "æĪĳä»¬åı¯ä»¥ä½¿çĶ¨": 6736,
      "çĽĲåĴĮ": 6737,
      "æĽ´é«ĺçļĦ": 6738,
      "å«©": 6739,
      "ä¸Ģå®ļè¦ģ": 6740,
      "å²Ĺä½į": 6741,
      "æİ¢ç©¶": 6742,
      "èī¾ç±³": 6743,
      "å¤ļåĲĥ": 6744,
      "çļĦéĺ³åħī": 6745,
      "ç¬¼": 6746,
      "è®°èĢħ": 6747,
      "éĩįè¦ģä½ľçĶ¨": 6748,
      "æĿİçĻ½": 6749,
      "èµ«": 6750,
      "çĽ¸éģĩ": 6751,
      "åĮħè£ħ": 6752,
      "æĻ¯èī²": 6753,
      "è¶ħè¶Ĭ": 6754,
      "å¥¶æ²¹": 6755,
      "èĳ¡èĲĦéħĴ": 6756,
      "ç¢°": 6757,
      "æ£ķ": 6758,
      "éĥ½éĿŀå¸¸": 6759,
      "æ´ªæ°´": 6760,
      "äºĨä¸Ģå®¶": 6761,
      "æĹ¦": 6762,
      "åĨĻä¸Ģé¦ĸ": 6763,
      "è¡Ĺéģĵ": 6764,
      "å¹¶ç¡®ä¿Ŀ": 6765,
      "æĦŁåĨĴ": 6766,
      "å®¶çļĦ": 6767,
      "æĸ°åħ´": 6768,
      "åĪ°æĿ¥": 6769,
      "å¼Ģè½¦": 6770,
      "æīĭå·¥": 6771,
      "ç»ĵæŀľè¡¨æĺİ": 6772,
      "æĮĩç¤º": 6773,
      "çĽ¸åĬł": 6774,
      "æĩĴ": 6775,
      "èµł": 6776,
      "æ¯Ķä¾ĭ": 6777,
      "æĲħæĭĮåĿĩåĮĢ": 6778,
      "éĿ¢çļĦ": 6779,
      "çĽ¸ä¼¼åº¦": 6780,
      "ä½łçŁ¥éģĵ": 6781,
      "è¿Ľç¨ĭ": 6782,
      "æĪĳåĽ½": 6783,
      "NL": 6784,
      "éĢīé¡¹ä¸Ń": 6785,
      "è±¹": 6786,
      "ä¸ĩçī©": 6787,
      "å®ĮæĪĲäºĨ": 6788,
      "éĿĴå°ĳå¹´": 6789,
      "28": 6790,
      "æĺ¯ç§¯æŀģçļĦ": 6791,
      "ä¼łè¾ĵ": 6792,
      "èĲ¥éĢł": 6793,
      "å¥ĸåĬ±": 6794,
      "æľªæĿ¥çļĦåıĳå±ķ": 6795,
      "åı¯ä»¥åĩıå°ĳ": 6796,
      "æļĳ": 6797,
      "åįĩçº§": 6798,
      "éŁ³ä¹Ĳä¼ļ": 6799,
      "æľīä¸Ģå¤©": 6800,
      "åĪĽæĸ°çļĦ": 6801,
      "åĭĻ": 6802,
      "çģ«çģ¾": 6803,
      "å¥¥æĸ¯": 6804,
      "å¹ħçĶ»": 6805,
      "è¯ŀ": 6806,
      "çļĦæŁĲ": 6807,
      "æŁĶåĴĮ": 6808,
      "çĪ±å¥½èĢħ": 6809,
      "è¿Ļé¦ĸè¯Ĺ": 6810,
      "æĺ¯ä¸Ģæ¬¾": 6811,
      "åħ¶ä¸ŃæľĢ": 6812,
      "éĿ¢åĽ¢": 6813,
      "åĲĮä¸Ģ": 6814,
      "éĢĤå®ľ": 6815,
      "è®Ĭ": 6816,
      "å¥½åıĭ": 6817,
      "æĪĳä»¬è¦ģ": 6818,
      "æķ´çĲĨ": 6819,
      "éĢļé¡º": 6820,
      "åĲĦåĽ½": 6821,
      "åı¯åı£": 6822,
      "è¿Ļä¸ªåŁİå¸Ĥ": 6823,
      "å¼¥": 6824,
      "æ¸ħçĲĨ": 6825,
      "å¥³çĶŁ": 6826,
      "é¬¼": 6827,
      "åı¯ä»¥ä½¿": 6828,
      "è¡ĮæĶ¿": 6829,
      "æ¶µçĽĸäºĨ": 6830,
      "è¶ĬæĿ¥è¶Ĭå¤ļçļĦäºº": 6831,
      "æĿ¥è§£åĨ³è¿Ļä¸ªéĹ®é¢ĺ": 6832,
      "å¤įåı¤": 6833,
      "åĪĿåŃ¦èĢħ": 6834,
      "åı¯ä»¥åİ»": 6835,
      "å¥½æľĭåıĭ": 6836,
      "è®¢åįķ": 6837,
      "åĬ¨æĢģ": 6838,
      "æŁ³": 6839,
      "çĶŁçī©åŃ¦": 6840,
      "èµ·åºĬ": 6841,
      "è¯·éļıæĹ¶": 6842,
      "åħ¶ä»ĸçļĦ": 6843,
      "ä»ĺåĩº": 6844,
      "åĪ©äºİ": 6845,
      "å·¥ä½ľä¸Ń": 6846,
      "çŁ³å¤´": 6847,
      "ç§ĳå¹»çĶµå½±": 6848,
      "æĽ´åĩĨç¡®åľ°": 6849,
      "....": 6850,
      "ç¾İæ´²": 6851,
      "ä¸»è¦ģæĺ¯": 6852,
      "è¾¨": 6853,
      "äººå·¥æĻºèĥ½åºĶçĶ¨": 6854,
      "æľºåĻ¨åŃ¦ä¹łæĺ¯ä¸Ģç§į": 6855,
      "æľĢä½İ": 6856,
      "è®²è¿°äºĨä¸Ģ": 6857,
      "æķĳæı´": 6858,
      "ä¸»æĹ¨": 6859,
      "ä½Ĩå®ĥä»¬": 6860,
      "æĸĩçĮ®": 6861,
      "æĪĳçİ°åľ¨": 6862,
      "çħ®çĨŁ": 6863,
      "å¯¹æ¯Ķ": 6864,
      "åĲ¸çĥŁ": 6865,
      "æĺŁç³»": 6866,
      "æĪĳä»¬çļĦäº§åĵģ": 6867,
      "å¤§æ°Ķå±Ĥ": 6868,
      "åĩłçĤ¹": 6869,
      "è´Łæĭħ": 6870,
      "ç³»ç»ŁçļĦ": 6871,
      "150": 6872,
      "åĸľæ¬¢åľ¨": 6873,
      "åħ³éĶ®çĤ¹": 6874,
      "å¤´åıĳ": 6875,
      "ä¸Ľ": 6876,
      "æįī": 6877,
      "åĲ¸å¼ķåĬĽ": 6878,
      "ıè§Ī": 6879,
      "ç©¿è¿ĩ": 6880,
      "ä¹Łè®¸": 6881,
      "äººä»¬çļĦçĶŁæ´»": 6882,
      "ç»Ļå®ļæĸĩæľ¬": 6883,
      "èŀįåĮĸ": 6884,
      "èĢĮå¼Ĥ": 6885,
      "éŁ©çīĪ": 6886,
      "åĪĽå§ĭ": 6887,
      "åı£ç½©": 6888,
      "è»": 6889,
      "å§»": 6890,
      "ä¸»è¦ģåĨħå®¹": 6891,
      "è¿Ĳç®Ĺ": 6892,
      "éĿŀå¸¸æľīè¶£": 6893,
      "ä¼łè¯´": 6894,
      "è®¡ç®Ĺæľºç¨ĭåºı": 6895,
      "çĻ¾å¹´": 6896,
      "åħ¬åħ±äº¤éĢļ": 6897,
      "èıł": 6898,
      "èı²å°Ķéĵģå¡Ķ": 6899,
      "çĮĽ": 6900,
      "è¯·éĹ®æĤ¨": 6901,
      "ç»ĨèıĮ": 6902,
      "éĩıåĴĮ": 6903,
      "æ°´åĪĨ": 6904,
      "æĬĢè¡ĵ": 6905,
      "çĭ¸": 6906,
      "æ»¨": 6907,
      "åĲ¯ç¤º": 6908,
      "åı¯ä»¥å¸®åĬ©æĤ¨": 6909,
      "æĭĴç»Ŀ": 6910,
      "åĽ¢éĺŁåĲĪä½ľ": 6911,
      "åºŁå¼ĥçī©": 6912,
      "åħĦ": 6913,
      "æµ·å²¸": 6914,
      "ä¸įåıĺ": 6915,
      "è¿ľå¤Ħ": 6916,
      "æĺ¯åĵª": 6917,
      "ç²Ĺ": 6918,
      "æĽ´æį¢": 6919,
      "éĢīæīĭ": 6920,
      "é¦ĸæ¬¡": 6921,
      "éĢ²è¡Į": 6922,
      "çİ¯å¢ĥä¸Ń": 6923,
      "äººå·¥æĻºèĥ½é¢ĨåŁŁ": 6924,
      "çļĦåı£æĦŁ": 6925,
      "åıĳå°Ħ": 6926,
      "åİ»çľĭ": 6927,
      "èµµ": 6928,
      "çļĦä¸Ń": 6929,
      "è¿Ļä¹Łæĺ¯": 6930,
      "çıŃçīĻ": 6931,
      "èº«æĿĲ": 6932,
      "çĶµåŃĲè®¾å¤ĩ": 6933,
      "æº¶": 6934,
      "è¥¿çıŃçīĻ": 6935,
      "éĻĲäºİ": 6936,
      "çļĦäººåĲį": 6937,
      "éľĢæ±ĤåĴĮ": 6938,
      "æģĲé¾Ļ": 6939,
      "çļĦä½ĵéªĮ": 6940,
      "äº¿ç¾İåħĥ": 6941,
      "æµ·æµª": 6942,
      "çļĨ": 6943,
      "æĺĨèĻ«": 6944,
      "ä¾Ŀæį®": 6945,
      "åıĹä¼Ĺ": 6946,
      "çļĦæĮĩå¯¼": 6947,
      "è¿ĽèĢĮ": 6948,
      "åıĳçİ°èĩªå·±": 6949,
      "çº¢éħĴ": 6950,
      "å¸®æĤ¨": 6951,
      "éĴ»": 6952,
      "åģļçļĦ": 6953,
      "æľºåĻ¨åŃ¦ä¹łæĬĢæľ¯": 6954,
      "èĢĮéĹ»åĲį": 6955,
      "ä¼łæĦŁ": 6956,
      "æķ°æį®åºĵ": 6957,
      "æ°£": 6958,
      "ä½łæĥ³": 6959,
      "ä¿¡å¿ĥ": 6960,
      "ä¹Łæĺ¯ä¸Ģä¸ª": 6961,
      "çļĦæķ´": 6962,
      "è¿ĺæľīä¸ĢäºĽ": 6963,
      "Ġå½ĵçĦ¶åı¯ä»¥": 6964,
      "æĪĳåĲ¬è¯´": 6965,
      "é«ĺçº§": 6966,
      "æĺı": 6967,
      "å¯¹æĪĳä»¬": 6968,
      "æĪĸä¸ŃæĢ§": 6969,
      "åħħçĶµ": 6970,
      "å¯¹åºĶ": 6971,
      "æ°Ķæģ¯": 6972,
      "åıªéľĢè¦ģ": 6973,
      "å¥½å¥½": 6974,
      "æľīå¤ļ": 6975,
      "æĹłå°½": 6976,
      "å¾ĴæŃ¥": 6977,
      "è´µçļĦ": 6978,
      "åŃ¸ç¿Ĵ": 6979,
      "æģ¤": 6980,
      "åĮĨ": 6981,
      "ä¸Ģéģį": 6982,
      "åĳĬè¯īæĪĳä»¬": 6983,
      "èĻ¹": 6984,
      "æķ¸": 6985,
      "èį¯çī©çłĶåıĳ": 6986,
      "éĿĴæĺ¥": 6987,
      "é¹°": 6988,
      "çļĦæ±¡æŁĵ": 6989,
      "åĴĮç»Ħç»ĩ": 6990,
      "çĵ£": 6991,
      "%ãĢĤ": 6992,
      "å°ıç»Ħ": 6993,
      "æıĲä¾ĽæĽ´å¤ļ": 6994,
      "éħ¸å¥¶": 6995,
      "ä»Ĭå¤©çļĦ": 6996,
      "ä»ĸäººçļĦ": 6997,
      "æĭĨ": 6998,
      "åīįæĿ¥": 6999,
      "çļĦç©ºéĹ´": 7000,
      "æĤ¬çĸĳ": 7001,
      "éļ¾åº¦": 7002,
      "åıįå¯¹": 7003,
      "æĥĬåĸľ": 7004,
      "åŃĹç¬¦ä¸²": 7005,
      "ä½łåĸľæ¬¢": 7006,
      "å£¶": 7007,
      "æĺİæĺ¾çļĦ": 7008,
      "ç±³é¥Ń": 7009,
      "è·ŁæĪĳ": 7010,
      "éĤĦ": 7011,
      "çİ¯ä¿Ŀæİªæĸ½": 7012,
      "æĸĩç«łçļĦ": 7013,
      "æĲºå¸¦": 7014,
      "æĪĳçŁ¥éģĵ": 7015,
      "è¢«å¹¿æ³ĽåºĶçĶ¨äºİ": 7016,
      "æĦŁåĪ°å¾Ī": 7017,
      "çłĶç©¶åıĳçİ°": 7018,
      "èħº": 7019,
      "åĸĿåĴĸåķ¡": 7020,
      "çŃĽéĢī": 7021,
      "è¿Ľè¡ĮæĥħæĦŁåĪĨç±»": 7022,
      "æĻĭ": 7023,
      "å¾Īéĩįè¦ģ": 7024,
      "ä¹ĭä½ľ": 7025,
      "çŁ¿çī©è´¨": 7026,
      "å¤įåĲĪ": 7027,
      "åŃĺåľ¨çļĦ": 7028,
      "çļĦçľ¼çĿĽ": 7029,
      "åĩŃ": 7030,
      "åİĭåĬĽåĴĮçĦ¦èĻĳ": 7031,
      "ç§ĳæĬĢçļĦåıĳå±ķ": 7032,
      "çĻ¾æĲŃ": 7033,
      "å¥½åĲĥ": 7034,
      "æ·Ģ": 7035,
      "éĻµ": 7036,
      "éĶĻè¯¯çļĦ": 7037,
      "æ¯įäº²": 7038,
      "å¹¶ä¿ĿæĮģ": 7039,
      "æľĢåĪĿ": 7040,
      "å±ķè§Ī": 7041,
      "å¢ŀæ·»": 7042,
      "å½Ĵçº³": 7043,
      "æĦŁäºº": 7044,
      "éľĢè¦ģèĢĥèĻĳ": 7045,
      "çķªèĮĦéħ±": 7046,
      "å¹´åīį": 7047,
      "ä¸Ģè¾Ĩ": 7048,
      "éĤª": 7049,
      "æ·±å¤Ħ": 7050,
      "è§Ĩéĩİ": 7051,
      "åºıåĪĹ": 7052,
      "æ°´åĮĸåĲĪçī©": 7053,
      "æī§å¯¼": 7054,
      "å«Įçĸĳäºº": 7055,
      "å¯¹ç¤¾ä¼ļ": 7056,
      "åĪĨç±»åĻ¨": 7057,
      "çļĦä¼ĺçĤ¹": 7058,
      "é¢ĦæľŁ": 7059,
      "åı¯æĮģç»ŃæĢ§": 7060,
      "æł¹æį®æıĲä¾ĽçļĦæĸĩæľ¬": 7061,
      "æľ´": 7062,
      "è¾ī": 7063,
      "å¤´çĹĽ": 7064,
      "çĽ¸å¯¹è®º": 7065,
      "éĵľ": 7066,
      "ç´§å¯Ĩ": 7067,
      "è£ħä¿®": 7068,
      "æĥ«": 7069,
      "çļĦæĻ®åıĬ": 7070,
      "ä»¥åĩıå°ĳ": 7071,
      "ç»Ļå®ļçļĦåı¥åŃĲ": 7072,
      "åºŀ": 7073,
      "è¡¨çİ°åĩºèī²": 7074,
      "å°ıèĬ³": 7075,
      "ç½ĳç»ľå®īåħ¨": 7076,
      "åºŁçī©": 7077,
      "åĴĸåķ¡é¦Ĩ": 7078,
      "å¹´ä»½": 7079,
      "çŃīä¿¡æģ¯": 7080,
      "çģŃç»Ŀ": 7081,
      "åĩłå¤©": 7082,
      "åħ¬äº¤": 7083,
      "ä½¿åħ¶æĽ´åĬłç®Ģæ´ģ": 7084,
      "æŃ£ä¼ł": 7085,
      "çļĦåħ¬åı¸": 7086,
      "åīįè¿Ľ": 7087,
      "åħ¸åŀĭ": 7088,
      "åĲİçļĦæĸĩæľ¬": 7089,
      "åįĪé¤Ĳ": 7090,
      "éĽ¶é£Ł": 7091,
      "ç«Ļåľ¨": 7092,
      "ãĢĤãĢĤ": 7093,
      "ä¸ĬéĿ¢çļĦéĹ®é¢ĺ": 7094,
      "å©ļå§»": 7095,
      "éĺŁä¼į": 7096,
      "å¨ĺ": 7097,
      "æĦŁæĥħ": 7098,
      "ä½łæľĢè¿ĳ": 7099,
      "éģ®": 7100,
      "å¯ĨåĪĩ": 7101,
      "çļĦäººçĶŁ": 7102,
      "ä¸¥éĩįçļĦ": 7103,
      "åĴ³": 7104,
      "æĸ¹éĿ¢çļĦåºĶçĶ¨": 7105,
      "å±ŀæĢ§": 7106,
      "ä»»åĬ¡ä¸Ń": 7107,
      "è¿Ļæľ¬å°ıè¯´": 7108,
      "å¦ĤæŀľæĤ¨æĥ³": 7109,
      "å¸®åĬ©ä½ł": 7110,
      "åĴĮéģĵå¾·": 7111,
      "ä¼ļå½±åĵį": 7112,
      "çļĦçĸ¾çĹħ": 7113,
      "åĨ·éĿĻ": 7114,
      "çĽĸèĮ¨æ¯Ķ": 7115,
      "è¿Ļä¸ªé¡¹çĽ®": 7116,
      "çļĦæ¯Ľ": 7117,
      "çļĦä¸īä¸ª": 7118,
      "é¢ľèī²çļĦ": 7119,
      "åĢº": 7120,
      "éĥİ": 7121,
      "æľīä¸¤ä¸ª": 7122,
      "çĶŁæĪĲä¸Ģä¸ªåħ³äºİ": 7123,
      "æĪĸæľįåĬ¡": 7124,
      "éĽ»": 7125,
      "åĨľæĿĳ": 7126,
      "çļĦåħ´è¶£": 7127,
      "åĬłå¿«": 7128,
      "è§£éĩĬä»Ģä¹Īæĺ¯": 7129,
      "äºĨä¸Ģç³»åĪĹ": 7130,
      "åľ¨ç¾İåĽ½": 7131,
      "åŃ¦éĻ¢": 7132,
      "ä¸ŃçļĦä¸Ģä¸ª": 7133,
      "ä¸ĵéĹ¨": 7134,
      "éĵ¶æ²³": 7135,
      "å¹¶æł¹æį®": 7136,
      "çļĦçĥ¤": 7137,
      "åķıé¡Į": 7138,
      "æĮ¤": 7139,
      "æµıè§Ī": 7140,
      "çİ°æľī": 7141,
      "çļĦçħ": 7142,
      "æĹ¶éĹ´åĨħ": 7143,
      "éĢļå¸¸åľ¨": 7144,
      "çļĦäºĭå®ŀ": 7145,
      "æµ·æĭĶ": 7146,
      "èŀįåħ¥": 7147,
      "è¯ķçĿĢ": 7148,
      "æĳ¸": 7149,
      "åı¯ä»¥å¾Ĺåĩº": 7150,
      "åģļä¸Ģä¸ª": 7151,
      "ï¼ī</": 7152,
      "å®ŀçİ°äºĨ": 7153,
      "æ©Ļèī²": 7154,
      "å¤§åĪ©äºļ": 7155,
      "æİ¨æĸŃåĩº": 7156,
      "èĤ¢": 7157,
      "åŃĺåľ¨ä¸ĢäºĽ": 7158,
      "ä»İä»¥ä¸ĭæĸĩæľ¬": 7159,
      "éĿŀå¸¸éĩįè¦ģçļĦ": 7160,
      "åĴĮæıĲé«ĺ": 7161,
      "åı¯ä»¥çľĭ": 7162,
      "èµ°è¿Ľ": 7163,
      "æĹ¶éĹ´ç®¡çĲĨ": 7164,
      "æĢ»ç»ĵåĩº": 7165,
      "å¥³å£«": 7166,
      "å¼ĢæĶ¾å¼ı": 7167,
      "çĭ¬èĩª": 7168,
      "æıĲåıĬ": 7169,
      "çī§": 7170,
      "ä¼łæĦŁåĻ¨": 7171,
      "åºĶå½ĵ": 7172,
      "å°ıæĺİçİ°åľ¨": 7173,
      "çĶ¨æĪ·æıĲä¾Ľ": 7174,
      "æ³ķéĻ¢": 7175,
      "æĥ³åĪ°": 7176,
      "åĽ¾çīĩ": 7177,
      "åľ¨åĮ»çĸĹé¢ĨåŁŁ": 7178,
      "èĩªçĦ¶çķĮ": 7179,
      "åħ¨æĸ°çļĦ": 7180,
      "ä¼ģé¹ħ": 7181,
      "ãĢĳ": 7182,
      "è©¹": 7183,
      "æĹłæ³ķç¡®å®ļ": 7184,
      "ç§įæĹıæŃ§è§Ĩ": 7185,
      "çļĦè·¯": 7186,
      "æĦŁåĬ¨": 7187,
      "çļĦæĻļ": 7188,
      "ãĢĲ": 7189,
      "å¸®å¿Ļ": 7190,
      "äººä»¬åı¯ä»¥": 7191,
      "ä»İä½ł": 7192,
      "åĶ±æŃĮ": 7193,
      "æ¸¸è§Ī": 7194,
      "å¸®åĬ©åĮ»çĶŁ": 7195,
      "èŁ": 7196,
      "ç§¦": 7197,
      "åħ¶å®ĥ": 7198,
      "çļĦæµª": 7199,
      "è¿½æº¯åĪ°": 7200,
      "æ±º": 7201,
      "åŁİåł¡": 7202,
      "ç§ĳæĬĢåıĳå±ķ": 7203,
      "å¹¿æ³ĽåºĶçĶ¨äºİ": 7204,
      "å´ĩ": 7205,
      "åĬ¨çĶ»": 7206,
      "å¸ĮæľĽè¿ĻäºĽ": 7207,
      "èĲ§": 7208,
      "ä¿ĿæĬ¤åľ°çĲĥ": 7209,
      "åĨ°ç®±": 7210,
      "åĨĻçļĦ": 7211,
      "å¦®": 7212,
      "é©¬åħĭ": 7213,
      "ä»Ĭå¤©æĺ¯": 7214,
      "ç§ĳåĬ¨çī©": 7215,
      "çĶµåķĨ": 7216,
      "æĬķèµĦèĢħ": 7217,
      "ä¸¢": 7218,
      "çĶŁæ´»è´¨éĩı": 7219,
      "æľĪä»½": 7220,
      "å±±åĮº": 7221,
      "æĩĪ": 7222,
      "çĶ¨æĪ·ä½ĵéªĮ": 7223,
      "çļĦæľĢæĸ°": 7224,
      "æ²Ļæ»©ä¸Ĭ": 7225,
      "NLP": 7226,
      "ä¹Łè¦ģ": 7227,
      "ç«ŀäºīå¯¹æīĭ": 7228,
      "è¯·åĽŀçŃĶä¸ĭéĿ¢çļĦéĹ®é¢ĺ": 7229,
      "æķĪåºĶ": 7230,
      "ç§ĳåŃ¦çłĶç©¶": 7231,
      "çĶ·çĶŁ": 7232,
      "åģľæŃ¢": 7233,
      "æİĴåĲį": 7234,
      "åłª": 7235,
      "æµ·é²ľ": 7236,
      "èĲ½åı¶": 7237,
      "ç¼ĸè¾ĳä»¥ä¸ĭåı¥åŃĲ": 7238,
      "çļĦä½ľåĵģ": 7239,
      "èµ°åĲĳ": 7240,
      "çļĦç¤¼çī©": 7241,
      "Ali": 7242,
      "çļĦæľīæķĪ": 7243,
      "å¿ĹæĦ¿èĢħ": 7244,
      "ä¸ĺ": 7245,
      "å¯¹æľªæĿ¥": 7246,
      "ï¼īãĢģ": 7247,
      "æ©ĺåŃĲ": 7248,
      "ç»ıåİĨäºĨ": 7249,
      "æĽ´åħ·ä½ĵ": 7250,
      "æ¬¢ä¹Ĳ": 7251,
      "çļĦæĦıå¤§åĪ©": 7252,
      "æľīåı¯èĥ½": 7253,
      "åĩıåİĭ": 7254,
      "çĢ": 7255,
      "æħ¢æĢ§": 7256,
      "çļĦè¯įè¯Ń": 7257,
      "åĴĮåĨ³çŃĸ": 7258,
      "ä»ĸæĬĬ": 7259,
      "ç»Ļå®ļä¸Ģæ®µæĸĩæľ¬": 7260,
      "éĢłåŀĭ": 7261,
      "ç»ıæµİåıĳå±ķ": 7262,
      "æ³Ħéľ²": 7263,
      "æŀ¯": 7264,
      "å°ıå¼ł": 7265,
      "åĲĦç§įåĲĦ": 7266,
      "çº¿æĢ§": 7267,
      "æĸ¹æ³ķåı¯ä»¥": 7268,
      "ä¸ĢèĪ¬æĿ¥è¯´": 7269,
      "åĴĮæĶ¾æĿ¾": 7270,
      "æ¾³å¤§åĪ©äºļ": 7271,
      "çº¿ç´¢": 7272,
      "èĬĤçº¦èĥ½æºĲ": 7273,
      "æ²¸": 7274,
      "äº¤å¾Ģ": 7275,
      "æģ¼": 7276,
      "æľīæľĽ": 7277,
      "èĩ³äºİ": 7278,
      "çļĦæķħäºĭæĥħèĬĤ": 7279,
      "éĥ½éľĢè¦ģ": 7280,
      "æł¹æį®è¿Ļä¸ª": 7281,
      "è®©èĩªå·±": 7282,
      "æµģæµª": 7283,
      "åģĩæľŁ": 7284,
      "è¿Ļä½¿å¾Ĺ": 7285,
      "å°ıåĿĹ": 7286,
      "ç»Ļå®ļä¸Ģç»Ħ": 7287,
      "å®ĥå°Ĩ": 7288,
      "ç¢º": 7289,
      "è¯·ä»İæĸĩç«łä¸ŃæıĲåıĸåĩº": 7290,
      "ä¿ĥéĶĢ": 7291,
      "å°¾å·´": 7292,
      "å¤§éĻĨ": 7293,
      "ä¸¤åı¥è¯Ŀ": 7294,
      "èĥ½åĪĨåĪ°": 7295,
      "æĭįæĳĦ": 7296,
      "45": 7297,
      "çļĦæ½ľåĬĽ": 7298,
      "éĺ¿çĶĺæŃ£ä¼ł": 7299,
      "ä¸¤åıª": 7300,
      "åķĨåľº": 7301,
      "æ¸Ĳæ¸Ĳ": 7302,
      "å½ĵä»£": 7303,
      "çĶŁæ´»ä¸ŃçļĦ": 7304,
      "éĴ¥": 7305,
      "å¢ŀåĬłäºĨ": 7306,
      "çĹĽèĭ¦": 7307,
      "il": 7308,
      "æĸ¹æ³ķæĿ¥": 7309,
      "çŁ©": 7310,
      "åĪĽä½ľä¸Ģé¦ĸ": 7311,
      "åĪĽæĸ°åĴĮ": 7312,
      "éĩıçļĦ": 7313,
      "çĶµåĬ¨æ±½è½¦": 7314,
      "å¯¹æĪĳä»¬çļĦ": 7315,
      "è¾ĥä½İ": 7316,
      "ä»İèĢĮæıĲé«ĺ": 7317,
      "è©²": 7318,
      "ç§¯ç´¯": 7319,
      "æ¨¡æĭŁäººç±»æĻºèĥ½": 7320,
      "åŃķ": 7321,
      "åģ¥åº·éĹ®é¢ĺ": 7322,
      "èģĬèģĬ": 7323,
      "æĪ·å¤ĸè¿ĲåĬ¨": 7324,
      "åĸĿæ°´": 7325,
      "è·³è·ĥ": 7326,
      "å¤ĸéĥ¨": 7327,
      "ĠC": 7328,
      "å¹³æĹ¶": 7329,
      "åĬ³åĬ¨": 7330,
      "å®¶çĶ¨": 7331,
      "çĸ²æĥ«": 7332,
      "é»Ħçĵľ": 7333,
      "çļĦæĭ¼": 7334,
      "é»ŀ": 7335,
      "ä¸Ģåĳ¨": 7336,
      "å¸®åĬ©æĤ¨": 7337,
      "ĠS": 7338,
      "éĢĥèĦ±": 7339,
      "èĩ£": 7340,
      "éĩĳé¢Ŀ": 7341,
      "éĥ½åºĶè¯¥": 7342,
      "æĺ¯æŃ£ç¡®çļĦ": 7343,
      "ä¸ºä¸»é¢ĺ": 7344,
      "ä¸įæĥ³": 7345,
      "åħ³èģĶ": 7346,
      "éĩĩçĶ¨äºĨ": 7347,
      "çĴ°": 7348,
      "çļĦåıĳçĶŁ": 7349,
      "èĤĮèĤ¤": 7350,
      "è°Īè®º": 7351,
      "çļĦçĭ¬çī¹": 7352,
      "ä»İè¿Ļç¯ĩæĸĩç«łä¸Ń": 7353,
      "åĸĤ": 7354,
      "é¤Ĳåħ·": 7355,
      "èĩªçĦ¶èµĦæºĲ": 7356,
      "æľ¬åľ°": 7357,
      "è¿ľç¦»": 7358,
      "åĴĮäºº": 7359,
      "çİīç±³": 7360,
      "åıĻè¿°": 7361,
      "åıĳçĶµ": 7362,
      "æķĻç»ĥ": 7363,
      "ä¸Ģæ®µè¯Ŀ": 7364,
      "åİī": 7365,
      "åİĨåı²ä¸ĬæľĢ": 7366,
      "å¥ĸé¡¹": 7367,
      "ç§¯æŀģçļĦæĥħæĦŁ": 7368,
      "ä½ľä¸ºä¸ĢåĲį": 7369,
      "çļĦç®ĢçŁŃ": 7370,
      "è§£åĨ³è¿Ļä¸ªéĹ®é¢ĺ": 7371,
      "å¤±åİ»äºĨ": 7372,
      "ç¾İè§Ĥ": 7373,
      "ç¦ģæŃ¢": 7374,
      "èļģ": 7375,
      "åľ¨è¿Ļç§įæĥħåĨµä¸ĭ": 7376,
      "çİ©æ¸¸æĪı": 7377,
      "æĺ¯ä¸įæĺ¯": 7378,
      "ç¿©": 7379,
      "é»Ħéĩĳ": 7380,
      "åİŁåĽłæĺ¯": 7381,
      "éľĢè¦ģæĽ´å¤ļ": 7382,
      "éĶ¦": 7383,
      "é¢ĨåħĪ": 7384,
      "æĳĺè¦ģçĶŁæĪĲ": 7385,
      "åĬ¨æľº": 7386,
      "å¤©æĸĩåŃ¦": 7387,
      "ä»¥ä¸ĭæĺ¯ä¸Ģæ®µ": 7388,
      "éģŃåıĹ": 7389,
      "22": 7390,
      "æĸĩåĮĸçļĦ": 7391,
      "Ġåħ¶": 7392,
      "çīµ": 7393,
      "æĿ¯åŃĲ": 7394,
      "è£ħå¤ĩ": 7395,
      "åģļåĪ°": 7396,
      "Alice": 7397,
      "æĪĳä»¬åı¯ä»¥å°Ĩ": 7398,
      "çĸ¼çĹĽ": 7399,
      "èĭį": 7400,
      "é¢¨": 7401,
      "åıįæĢĿ": 7402,
      "çĶµåŃĲäº§åĵģ": 7403,
      "å¡«åĨĻ": 7404,
      "âĢĻ": 7405,
      "ä¸İäººç±»": 7406,
      "äº§çĶŁçļĦ": 7407,
      "ä»¥æŃ¤": 7408,
      "ä¸ļç»©": 7409,
      "çīĽä»Ķè£¤": 7410,
      "æľĢåĸľæ¬¢çļĦçĶµå½±": 7411,
      "ç¼ĵè§£åİĭåĬĽ": 7412,
      "èĩĤ": 7413,
      "éĩįåĬĽ": 7414,
      "èĪªçıŃ": 7415,
      "çĹħæĥħ": 7416,
      "éģĵå¾·åĴĮ": 7417,
      "ä»İå°ı": 7418,
      "åı¯æĺ¯": 7419,
      "çģ¾éļ¾": 7420,
      "çŀ¬éĹ´": 7421,
      "åħ¬åħĥ": 7422,
      "çľŁçļĦå¾Ī": 7423,
      "å¿½è§Ĩ": 7424,
      "æĪĳä»¬åħ¬åı¸": 7425,
      "è®¤è¯ĨåĪ°": 7426,
      "æĪĳå¾Īåĸľæ¬¢": 7427,
      "å¥Ķè·ĳ": 7428,
      "ä½ľåĩº": 7429,
      "ç¦ıåĪ©": 7430,
      "éĥ½è¦ģ": 7431,
      "æ¯ıä¸Ģ": 7432,
      "ç»ĻæĪĳæıĲä¾Ľä¸ĢäºĽ": 7433,
      "éĢģç»Ļ": 7434,
      "çļĦä¸»é¢ĺæĺ¯": 7435,
      "æĸ¹å½¢": 7436,
      "åĲĪæĪĲ": 7437,
      "ä¸ĭéĿ¢çļĦåı¥åŃĲ": 7438,
      "ä½ıå®¿": 7439,
      "æĴŃæĶ¾": 7440,
      "ä½łåı¯ä»¥åľ¨": 7441,
      "åįĹéĥ¨": 7442,
      "èį¯åĵģ": 7443,
      "å°¤åħ¶æĺ¯åľ¨": 7444,
      "å°ģéĹŃ": 7445,
      "æĽ´æĺ¯": 7446,
      "çºµ": 7447,
      "23": 7448,
      "åħ»æĪĲ": 7449,
      "åĪĨæķ°": 7450,
      "ä¸ªäººçļĦ": 7451,
      "ä¸İäºº": 7452,
      "çļĦè¡£æľį": 7453,
      "ç²ĴåŃĲ": 7454,
      "å®¶éķ¿": 7455,
      "éĶĲ": 7456,
      "åĤ³": 7457,
      "âĢĺ": 7458,
      "èĪŁ": 7459,
      "çĪĨåıĳ": 7460,
      "æĹłéľĢ": 7461,
      "çļĦæµ·æ´ĭ": 7462,
      "äºķ": 7463,
      "å¼·": 7464,
      "æĿ¥ç¡®å®ļ": 7465,
      "çļĦè®¡åĪĴ": 7466,
      "ä¾ł": 7467,
      "æŀª": 7468,
      "çİ¯ä¿ĿéĹ®é¢ĺ": 7469,
      "IT": 7470,
      "åı¯çĶ¨äºİ": 7471,
      "åĤ¬": 7472,
      "çªĹæĪ·": 7473,
      "çĶ¨äºĨ": 7474,
      "çĻ»å±±": 7475,
      "åľ¨å®¶ä¸Ń": 7476,
      "å¦Ĥæŀľæľī": 7477,
      "èĦĬ": 7478,
      "æİªæĸ½æĿ¥": 7479,
      "çİ¯å¢ĥåĴĮ": 7480,
      "çĶŁæĢģå¹³è¡¡": 7481,
      "pp": 7482,
      "åĨľæ°ĳ": 7483,
      "æīĵçł´": 7484,
      "éĺ¿éĩĮ": 7485,
      "èĬ¯": 7486,
      "è§Ĥå¿µ": 7487,
      "ä½İç¢³": 7488,
      "æº¢": 7489,
      "ç®ĢçŁŃçļĦæĳĺè¦ģ": 7490,
      "çļĦç»ıåħ¸": 7491,
      "æĪĳä¸įçŁ¥éģĵ": 7492,
      "åĩıæ³ķ": 7493,
      "ç¢Į": 7494,
      "æĺ¯éĿŀå¸¸éĩįè¦ģçļĦ": 7495,
      "iP": 7496,
      "çīĪåŀĭ": 7497,
      "ä»İæľª": 7498,
      "et": 7499,
      "æıĲåıĸåĩºæĿ¥": 7500,
      "çļĦæľĭåıĭ": 7501,
      "çľŁå¥½": 7502,
      "åĺī": 7503,
      "åĵŃ": 7504,
      "é©¬å°Ķ": 7505,
      "è®©è¯»èĢħ": 7506,
      "æħ¨": 7507,
      "ç§¯æŀģåıĤä¸İ": 7508,
      "æĪĳæĥ³äºĨè§£": 7509,
      "çº¿æĿ¡": 7510,
      "è¯¦ç»Ĩä¿¡æģ¯": 7511,
      "èĨ³": 7512,
      "çļĦåĲĮä¹īè¯į": 7513,
      "çļĦç¿": 7514,
      "è¿Ľè¡ĮæĶ¹åĨĻ": 7515,
      "æŀģåħ¶": 7516,
      "ç©¿ä¸Ĭ": 7517,
      "çĭĲçĭ¸": 7518,
      "æ·ĺ": 7519,
      "çļĦæİ¨èįĲ": 7520,
      "çĪ¶äº²": 7521,
      "éĤ£è¯·éĹ®": 7522,
      "åľ°éĿ¢": 7523,
      "åĶ¤": 7524,
      "é¢ĸ": 7525,
      "æĽ´å¤§": 7526,
      "æ¶ĪåĮĸ": 7527,
      "éľĢè¦ģæĪĳä»¬": 7528,
      "çļĦçī©åĵģ": 7529,
      "çļĦæ¨¡åŀĭ": 7530,
      "åı¯ä»¥è¢«åĪĨç±»ä¸º": 7531,
      "æĬ½è±¡": 7532,
      "as": 7533,
      "æİª": 7534,
      "çĪĨçĤ¸": 7535,
      "çļĦéĤ£": 7536,
      "åŃ£åº¦": 7537,
      "åĲĳåīį": 7538,
      "è§Ĩè§īæķĪæŀľ": 7539,
      "åĲ¯åĬ¨": 7540,
      "éĤ£ä¹Īè¯·ä½ł": 7541,
      "åĴĮåİĨåı²": 7542,
      "ç¿»çĤĴ": 7543,
      "ÃĹ": 7544,
      "è§Ĥæµĭ": 7545,
      "ä¸įä»ħåı¯ä»¥": 7546,
      "æŀ«": 7547,
      "æ¡Ĥ": 7548,
      "ä¸»è§Ĥ": 7549,
      "äºĨä¸Ģä»½": 7550,
      "éħµ": 7551,
      "ä¸»é¢ĺåĴĮ": 7552,
      "æ©¡": 7553,
      "ä¸ĵä¸ļäººå£«": 7554,
      "éŁ©åĽ½": 7555,
      "å¹¶ä¸Ķåľ¨": 7556,
      "æĻĵ": 7557,
      "è¯´æ³ķ": 7558,
      "çļĦæĿĲæĸĻ": 7559,
      "åĪĽå§ĭäºº": 7560,
      "ä½¿åħ¶æĽ´åĬłæµģçķħ": 7561,
      "åĬłæĭ¿": 7562,
      "çĮ«åĴĮ": 7563,
      "å°ıçº¢æľī": 7564,
      "èĲ¥éĶĢçŃĸçķ¥": 7565,
      "è´Ŀå°Ķ": 7566,
      "çļĦæķĪçİĩ": 7567,
      "å»·": 7568,
      "èįīåľ°ä¸Ĭ": 7569,
      "å®¢æĪ·æľįåĬ¡": 7570,
      "ç¨ĭåºıåĳĺ": 7571,
      "æķ°æį®éļĲç§ģ": 7572,
      "éĿŀå¸¸åĸľæ¬¢": 7573,
      "ç¹ģèį£": 7574,
      "åĳ½ä»¤": 7575,
      "ĠA": 7576,
      "å¯¼èĪª": 7577,
      "æĢ»éĥ¨": 7578,
      "å¦Ĥä½ķä½¿çĶ¨": 7579,
      "çļĦéĩįè¦ģç»ĦæĪĲéĥ¨åĪĨ": 7580,
      "ĠB": 7581,
      "ä»ĸå¯¹": 7582,
      "è¿Ļç¯ĩæĸĩç«łä¸ŃçļĦ": 7583,
      "å¤±çľł": 7584,
      "é¾Ł": 7585,
      "ä¿ĿåŃĺ": 7586,
      "æĶ¹åĨĻæĪĲ": 7587,
      "çĺ¤": 7588,
      "ç®Ĺæ³ķåĴĮ": 7589,
      "é©±åĬ¨": 7590,
      "æĦŁåı¹": 7591,
      "é«ĺä¸Ń": 7592,
      "éĿŀå¸¸åĩºèī²": 7593,
      "è¢«åĳĬ": 7594,
      "èģĶåĲĪåĽ½": 7595,
      "åı¯ä¹Ĳ": 7596,
      "ä¸ŃåĽ½åı¤ä»£": 7597,
      "æĸ¹æ³ķæĺ¯": 7598,
      "æĮ«æĬĺ": 7599,
      "è¦ģç´ł": 7600,
      "è¥¿äºļ": 7601,
      "éĶĭ": 7602,
      "å¸Ĥæ°ĳ": 7603,
      "Ġé¦ĸåħĪ": 7604,
      "åĵįåºĶ": 7605,
      "æĺİæĺŁ": 7606,
      "ç¬¬åĽĽ": 7607,
      "åį§å®¤": 7608,
      "ç§ģäºº": 7609,
      "åĲĳæĤ¨": 7610,
      "æĸ¯æĭī": 7611,
      "å¢¨è¥¿": 7612,
      "ic": 7613,
      "éĤ£æĪĳ": 7614,
      "æ¬¾å¼ı": 7615,
      "ç©ºæ°Ķä¸Ń": 7616,
      "å¯¼èĩ´çļĦ": 7617,
      "æ°´èµĦæºĲ": 7618,
      "è¥¿åħ°": 7619,
      "åı¶åŃĲ": 7620,
      "åľ¨è¿ĩåİ»çļĦ": 7621,
      "æĪĺèĥľ": 7622,
      "ä¸įæĸŃè¿ĽæŃ¥": 7623,
      "å¢¨è¥¿åĵ¥": 7624,
      "åĨĻåĩº": 7625,
      "æīĳ": 7626,
      "é¢Ĩè¢ĸ": 7627,
      "éĻ·åħ¥": 7628,
      "äºĨä¸Ģé¡¹": 7629,
      "çļĦä¸»é¢ĺåĴĮ": 7630,
      "çļĦåŃĺåľ¨": 7631,
      "ä»ĬæĻļ": 7632,
      "è½¬åŀĭ": 7633,
      "æĺ¯ä¸Ģæľ¬": 7634,
      "çļĦæĹħè¡Į": 7635,
      "åĪĨç»Ļä»ĸçļĦ": 7636,
      "ä½łèĥ½ä¸įèĥ½": 7637,
      "æĢ¨": 7638,
      "çĦ¦èĻĳåĴĮ": 7639,
      "åĪĨæķ£": 7640,
      "ç¹ģæ®ĸ": 7641,
      "åĩīçĪ½": 7642,
      "å°±ä¸ļæľºä¼ļ": 7643,
      "çļĦåĪĨç±»": 7644,
      "æŃ¤æĹ¶": 7645,
      "æ¹Ľ": 7646,
      "åħ¶ä¸ŃåĮħåĲ«": 7647,
      "èĬĤçĤ¹": 7648,
      "æ¾Ī": 7649,
      "am": 7650,
      "éļĲèĹı": 7651,
      "åı¯ä»¥è¿½æº¯åĪ°": 7652,
      "çģ«å±±": 7653,
      "åĬłæ³ķ": 7654,
      "æķıæĦŁ": 7655,
      "ä¸ªäººä¿¡æģ¯": 7656,
      "åħ§": 7657,
      "åĴĮå½±åĵį": 7658,
      "äº¤æį¢": 7659,
      "åħ¹": 7660,
      "ä»ĸæĺ¯": 7661,
      "æĽ´åĸľæ¬¢": 7662,
      "æ¼Ķå¥ı": 7663,
      "æĲŀ": 7664,
      "å®¶åĴĮ": 7665,
      "ä¹ĲåĻ¨": 7666,
      "å¥³ç¥ŀ": 7667,
      "æļ´åĬĽ": 7668,
      "åįī": 7669,
      "çī¹æľĹ": 7670,
      "è£Ķ": 7671,
      "æĺĵè¯»": 7672,
      "çī¹åĪ«æĺ¯åľ¨": 7673,
      "å®¶ä¹¡": 7674,
      "ãĢĤâĢĿ\\": 7675,
      "æīĵåį°": 7676,
      "éĹ¨åı£": 7677,
      "çļĦè¡¨æ¼Ķ": 7678,
      "æĴĴä¸Ĭ": 7679,
      "ä¸Ģä¸ªå°ı": 7680,
      "å·¥åİĤ": 7681,
      "åħ³äºİäººå·¥æĻºèĥ½": 7682,
      "æīĩ": 7683,
      "åĮĸå¦Ĩ": 7684,
      "åľ¨ç»Ļå®ļçļĦæĸĩæľ¬ä¸Ń": 7685,
      "åģļåĩºäºĨ": 7686,
      "ä»½é¢Ŀ": 7687,
      "è¿Ļå°±æĺ¯": 7688,
      "å¸¦æĿ¥æĽ´å¤ļçļĦ": 7689,
      "åı¯èĥ½ä¼ļå¯¹": 7690,
      "åĵĪåĪ©æ³¢çī¹": 7691,
      "åĽłæĸ¯åĿ¦": 7692,
      "åįĢ": 7693,
      "è¢«åĬ¨": 7694,
      "åĸľæĤ¦": 7695,
      "åŁºéĩĳ": 7696,
      "ä¸ĸçķĮä¸Ń": 7697,
      "åĪĽéĢłåĩº": 7698,
      "åĴĮä½ł": 7699,
      "ç»¿èī²çļĦ": 7700,
      "ç¤¾äº¤åªĴä½ĵä¸Ĭ": 7701,
      "çļĦæ²»çĸĹæĸ¹æ¡Ī": 7702,
      "æ²¿çĿĢ": 7703,
      "æ´¥": 7704,
      "æ²¡éĹ®é¢ĺ": 7705,
      "è¡Įç¨ĭ": 7706,
      "åĤ²": 7707,
      "é¦Ļåĳ³": 7708,
      "çļĦæĢ§æł¼": 7709,
      "æĦŁåıĹåĪ°äºĨ": 7710,
      "çĶŁçĲĨ": 7711,
      "åģ¿": 7712,
      "éķ·": 7713,
      "2020": 7714,
      "å·²ç»ıè¢«": 7715,
      "çĽĬå¤Ħ": 7716,
      "å¸ķ": 7717,
      "å¤ªå¹³": 7718,
      "å¤§æµ·": 7719,
      "æ·±åıĹ": 7720,
      "çļĦåĩĨç¡®": 7721,
      "èº«é«ĺ": 7722,
      "å¸®æĪĳçĶŁæĪĲåķĨåĵģæĸĩæ¡Ī": 7723,
      "åŁĥèı²å°Ķéĵģå¡Ķ": 7724,
      "åı¯è¯»æĢ§": 7725,
      "åı¯éĿłæĢ§": 7726,
      "çĪ·": 7727,
      "çľĭæ³ķ": 7728,
      "å¯¿åı¸": 7729,
      "è¾©": 7730,
      "lo": 7731,
      "æ¸¡": 7732,
      "æĹłçº¿": 7733,
      "åı°çģ£": 7734,
      "ç¼ºå°ĳ": 7735,
      "åŃ¦çĶŁçļĦ": 7736,
      "è³ª": 7737,
      "èĩªè½¬": 7738,
      "åįĹäº¬": 7739,
      "å¤ļå°ĳä¸ª": 7740,
      "èįīåľ°": 7741,
      "åģļäºĨ": 7742,
      "è·³èĪŀ": 7743,
      "ĠæĪĳä»¬": 7744,
      "ä¸įçŁ¥": 7745,
      "è§£è¯»": 7746,
      "è¯·æıĲåıĸåĩº": 7747,
      "èģĮä¸ļçĶŁæ¶¯": 7748,
      "è§ĴèĲ½": 7749,
      "èĨ³é£Ł": 7750,
      "çĽ²": 7751,
      "é¥®éħĴ": 7752,
      "æĸ°é²ľçļĦ": 7753,
      "æŁ±": 7754,
      "å®Ŀçİī": 7755,
      "å°ĬéĩįåĴĮ": 7756,
      "èµ°åľ¨": 7757,
      "é£İåĳ³": 7758,
      "è®°ä½ı": 7759,
      "éĺ¿å°Ķ": 7760,
      "æ³°åĽ½": 7761,
      "æ¡ĳ": 7762,
      "å®ħ": 7763,
      "ç¢³æ°´åĮĸåĲĪçī©": 7764,
      "ä»¥ä¸ĭæĺ¯ä¸Ģç¯ĩ": 7765,
      "çĶŁæľº": 7766,
      "è¿ĺåľ¨": 7767,
      "èº«ä½ĵçļĦ": 7768,
      "çıĤ": 7769,
      "éĿłè¿ĳ": 7770,
      "æĽ´å¿«åľ°": 7771,
      "æ¸ħæ´ģèĥ½æºĲ": 7772,
      "åĮ»çĸĹæľįåĬ¡": 7773,
      "æĳĦå½±": 7774,
      "ä¿Ħç½Ĺæĸ¯": 7775,
      "æķ£æĸĩ": 7776,
      "äººå·¥æĻºèĥ½åľ¨åĮ»çĸĹé¢ĨåŁŁçļĦåºĶçĶ¨": 7777,
      "æĤ¨ä¹Łåı¯ä»¥": 7778,
      "è®¾è®¡åĴĮ": 7779,
      "ç¡¬ä»¶": 7780,
      "è£¤åŃĲ": 7781,
      "é£İéĽ¨": 7782,
      "åĽłæŃ¤åı¯ä»¥": 7783,
      "å¥ĩå¹»": 7784,
      "å¯¹æĪĳ": 7785,
      "ä½ĵåŀĭ": 7786,
      "é¢Ĺç³ĸ": 7787,
      "æµģè¡ĮçļĦ": 7788,
      "ä¸įè§ģ": 7789,
      "æıĲä¾ĽæĽ´å¥½çļĦ": 7790,
      "äº¤éĢļæĭ¥åłµ": 7791,
      "å·´åİĺ": 7792,
      "è¯·å°Ĩ": 7793,
      "åģľè½¦": 7794,
      "åģļåĩºè´¡çĮ®": 7795,
      "å¾Ĳ": 7796,
      "éĢīä¸¾": 7797,
      "æ®¿": 7798,
      "å©Ĩ": 7799,
      "èµŀæī¬": 7800,
      "åŁĥåıĬ": 7801,
      "å¯¹ä»¥ä¸ĭåı¥åŃĲ": 7802,
      "åľ£æ¯į": 7803,
      "è¯·ç»Ļåĩº": 7804,
      "è¿Ŀæ³ķ": 7805,
      "åķĨäºº": 7806,
      "çļĦäººä»¬": 7807,
      "åĢ¼å¾Ĺä¸Ģçľĭ": 7808,
      "éĻįéĽ¨": 7809,
      "åħ¨éº¦": 7810,
      "æłĩæ³¨": 7811,
      "æħĪåĸĦ": 7812,
      "è½´": 7813,
      "æ²»çĸĹæĸ¹æ¡Ī": 7814,
      "æī¹è¯Ħ": 7815,
      "çļĦç½ĳç»ľ": 7816,
      "åıĳçĶŁçļĦ": 7817,
      "æĺ¯å¯¹": 7818,
      "å¤±è¸ª": 7819,
      "ä½łåºĶè¯¥": 7820,
      "çļĦè§Ĵèī²": 7821,
      "æĿ¥æııè¿°": 7822,
      "æĹ¥èĲ½": 7823,
      "35": 7824,
      "çļĦç³ĸæŀľæķ°": 7825,
      "ä½ĨæĪĳä»¬": 7826,
      "å®ĩèĪª": 7827,
      "æŃ¦åĻ¨": 7828,
      "ä¸ºç»Ļå®ļçļĦ": 7829,
      "èĩªå·±åĴĮ": 7830,
      "æĶ¯æĮģåĴĮ": 7831,
      "å¿Ļç¢Į": 7832,
      "è´«åĽ°": 7833,
      "çļĦéĩįçĤ¹": 7834,
      "æĬĵä½ı": 7835,
      "çļĦéķ¿": 7836,
      "ä¸Ńä½¿çĶ¨": 7837,
      "åİĮ": 7838,
      "æľīä¸Ģåıª": 7839,
      "æ¹¿åº¦": 7840,
      "æĢĿå¿µ": 7841,
      "äºĭå®ŀä¸Ĭ": 7842,
      "å·²ç»ıå¼Ģå§ĭ": 7843,
      "300": 7844,
      "æĳĺåıĸ": 7845,
      "èĥ½å¤ŁæĽ´å¥½åľ°": 7846,
      "èªª": 7847,
      "æľ¬æĸĩä»ĭç»įäºĨ": 7848,
      "ä¸įæĩĪ": 7849,
      "ä¿¯": 7850,
      "æ²»çĲĨ": 7851,
      "äºĽä»Ģä¹Ī": 7852,
      "æ¸©åĴĮ": 7853,
      "å°Ĩäºİ": 7854,
      "å¸®åĬ©äººä»¬": 7855,
      "å¤ªéĺ³çļĦ": 7856,
      "æĪĳä¸ºæĤ¨": 7857,
      "ç¼Ģ": 7858,
      "éĢ¼": 7859,
      "åĩĳ": 7860,
      "ä¸īè§Ĵå½¢": 7861,
      "åįĹæŀģæ´²": 7862,
      "ä»¥åĨħ": 7863,
      "åħ¬åħ±äº¤éĢļå·¥åħ·": 7864,
      "29": 7865,
      "çĶŁæĪĲæĸĩæ¡Ī": 7866,
      "æ¯ıä¸ªäººéĥ½æľī": 7867,
      "å°ĨæĪĲä¸º": 7868,
      "èİ²": 7869,
      "çĦ¶åĲİå°Ĩ": 7870,
      "çļĦç¬Ķ": 7871,
      "åĴĮçłĶç©¶": 7872,
      "è¿ĺæľīå¾Īå¤ļ": 7873,
      "å½¹": 7874,
      "å¤¸": 7875,
      "ä¸»é¢ĺæĺ¯": 7876,
      "æĤ¨åı¯ä»¥èĢĥèĻĳ": 7877,
      "å¼ķåħ¥": 7878,
      "æĸĩåĮĸéģĹäº§": 7879,
      "ä»¥èİ·å¾Ĺ": 7880,
      "ä¸ĬåŃ¦": 7881,
      "ä¸»è¦ģåĮħæĭ¬": 7882,
      "çļĦæĻ¯è±¡": 7883,
      "å®ĥä»¬æĺ¯": 7884,
      "åħ¨çĲĥæ°Ķæ¸©": 7885,
      "çīĽæİĴ": 7886,
      "åķ¤": 7887,
      "æĢ»åħ±": 7888,
      "çļĦä¸Ģé¡¹": 7889,
      "å°½ç®¡ä»ĸ": 7890,
      "çļĦæľĢå¤§": 7891,
      "åĵĩ": 7892,
      "çļĦæĦŁæĥħ": 7893,
      "å¹¶è¦ģæ±Ĥ": 7894,
      "ä¿¡å¿µ": 7895,
      "åı¯ä»¥è¢«å½Ĵç±»ä¸º": 7896,
      "ä¸ĭä¸Ģ": 7897,
      "å¥¥æĸ¯åį¡": 7898,
      "éķ¿åº¦ä¸º": 7899,
      "ä»İæĸĩç«łä¸Ń": 7900,
      "èµ¤": 7901,
      "è¿Ļç§įæĥħåĨµ": 7902,
      "ä¸ĸçķĮä¸ĬæľĢé«ĺçļĦå±±å³°": 7903,
      "å¸¶": 7904,
      "çļĦèĥĮæĻ¯": 7905,
      "å¤ł": 7906,
      "å·´åİĺå²Ľ": 7907,
      "åŃ¦çĶŁä»¬": 7908,
      "å¤ķéĺ³": 7909,
      "çļĦæ£®": 7910,
      "åľ¨åŁİå¸Ĥ": 7911,
      "å¡ĳéĢł": 7912,
      "å¥ĭæĸĹ": 7913,
      "æ¡Ĩæŀ¶": 7914,
      "åĪ©äºļ": 7915,
      "éĩĳé»Ħèī²": 7916,
      "é²¨": 7917,
      "æĸ¹å¼ıåĴĮ": 7918,
      "é»ĳå®¢": 7919,
      "åĪĨæŀĲäºĨ": 7920,
      "æģĲæĥ§": 7921,
      "ä¸ĩäºº": 7922,
      "ä¸½èİİ": 7923,
      "è©¹å§Ĩæĸ¯": 7924,
      "æľīä»·åĢ¼": 7925,
      "åºĶçĶ¨åľºæĻ¯": 7926,
      "é«ĺåĵģè´¨": 7927,
      "æĪ°": 7928,
      "çļĦæ£®æŀĹ": 7929,
      "æĪĲäºĨ": 7930,
      "åĽ¾å½¢": 7931,
      "å·´è¥¿": 7932,
      "æ°Ķè´¨": 7933,
      "ä¼ļä¸Ĭ": 7934,
      "æīĭä¸Ń": 7935,
      "æĸĩç«łä¸ŃæıĲåĪ°äºĨ": 7936,
      "åĵĢ": 7937,
      "è¿ĩæĿ¥": 7938,
      "æĶ¯æĴĳ": 7939,
      "ä¾¿å®ľ": 7940,
      "èĬ±åĽŃéĩĮ": 7941,
      "åĩłåįģå¹´": 7942,
      "çļĦè§£åĨ³æĸ¹æ¡Ī": 7943,
      "çħ§çīĩ": 7944,
      "çļĦæĵ": 7945,
      "èĻķ": 7946,
      "å¯¹æĤ¨": 7947,
      "æĪĳä¼ļå°½åĬĽ": 7948,
      "çļĦä¸¤ä¸ª": 7949,
      "é»Ľçİī": 7950,
      "è¦ģåİ»": 7951,
      "éľ²èĲ¥": 7952,
      "æµ®å®«": 7953,
      "çĥŃå¸¦": 7954,
      "åķ¤éħĴ": 7955,
      "åı¯è§Ĩ": 7956,
      "ï¼īï¼ļ": 7957,
      "å°ĳæķ°": 7958,
      "çĿ¡çľłè´¨éĩı": 7959,
      "çļĦæŀģ": 7960,
      "çĶŁæĪĲä¸Ģä¸ªåĮħåĲ«": 7961,
      "åĮ»åŃ¦åĽ¾åĥı": 7962,
      "é¦Ļèįī": 7963,
      "ä¸ºåħ¶": 7964,
      "çĻ½å¤©": 7965,
      "ä¸Ĭè¿°æĸĩæľ¬è¿Ľè¡Į": 7966,
      "å¤ªå¥½äºĨ": 7967,
      "ĊĠĠ": 7968,
      "ï¼ĳ": 7969,
      "æ¯ıå¤©æĹ©ä¸Ĭ": 7970,
      "çĽ´å¾Ħ": 7971,
      "è¾¾åĪ°äºĨ": 7972,
      "åĵĪåĵĪ": 7973,
      "çļĦæĦıæĢĿæĺ¯": 7974,
      "æĺ¯ä¸Ģåıª": 7975,
      "è½»æĿ¾åľ°": 7976,
      "æľºç¥¨": 7977,
      "çĽ®æłĩæĺ¯": 7978,
      "å»ī": 7979,
      "å¥¹ä»¬": 7980,
      "ä¼ĺç¼ºçĤ¹": 7981,
      "èĲ¥åħ»ç´ł": 7982,
      "åĴĮä¸ĢäºĽ": 7983,
      "æıĲä¾ĽçļĦæĸĩæľ¬": 7984,
      "æĸ¤": 7985,
      "çĻ½äºĳ": 7986,
      "ä¸įåľ¨": 7987,
      "ç§įåŃĲ": 7988,
      "çĪ±åĽłæĸ¯åĿ¦": 7989,
      "ä¸įç®¡": 7990,
      "åĬłå¤§": 7991,
      "åı¦ä¸Ģæĸ¹éĿ¢": 7992,
      "å¸ĥæĸ¯": 7993,
      "è¿½è¸ª": 7994,
      "åį¢æµ®å®«": 7995,
      "çļĦæįŁ": 7996,
      "çļĦè¦ģæ±Ĥ": 7997,
      "é¤Ĳé¥®": 7998,
      "çļĦåĲĹ": 7999,
      "åľ¨ä¸įåĲĮ": 8000,
      "çļĦè¶ĭåĬ¿": 8001,
      "æ¬¡æķ°": 8002,
      "èĪªå¤©": 8003,
      "ç¹ģå¿Ļ": 8004,
      "åĨ»": 8005,
      "ä¸ªæĢ§åĮĸçļĦ": 8006,
      "åĴ¬": 8007,
      "è¿ĻäºĽæİªæĸ½": 8008,
      "çļĦçħ§": 8009,
      "çļĦä¸Ģç»Ħ": 8010,
      "é¥¿": 8011,
      "ä¸Ĭè¿°æĸĩæľ¬è¿Ľè¡ĮçºłéĶĻ": 8012,
      "åĴĮçŁ¥è¯Ĩ": 8013,
      "å®Įç¾İçļĦ": 8014,
      "æ¸ħçĪ½": 8015,
      "ï¼Ĳ": 8016,
      "ä¹ĥ": 8017,
      "éľĢè¦ģä½¿çĶ¨": 8018,
      "åĩłä¸ªç³ĸæŀľ": 8019,
      "ä¸Ģè¾¹": 8020,
      "å±¿": 8021,
      "èĲĿ": 8022,
      "å½±åĵįäºĨ": 8023,
      "ä¼ģä¸ļçļĦ": 8024,
      "çľĭè¿ĩ": 8025,
      "åİŁæľ¬": 8026,
      "å¾ħéģĩ": 8027,
      "ç¼©çŁŃ": 8028,
      "ä¸ŃéĹ´": 8029,
      "è®¸å¤ļé¢ĨåŁŁ": 8030,
      "éĽĨåĽ¢": 8031,
      "æĶ¶çĽĬ": 8032,
      "åĴĮå¤ĦçĲĨ": 8033,
      "éĩįè¦ģçļĦæĺ¯": 8034,
      "æ°ĶåĢĻåıĺåĮĸå¯¹": 8035,
      "åıįå°Ħ": 8036,
      "å³¡": 8037,
      "è¶³çĲĥæ¯ĶèµĽ": 8038,
      "çļĦæ±½": 8039,
      "åĲĮæĹ¶ä¹Łåı¯ä»¥": 8040,
      "è´·æ¬¾": 8041,
      "çĸ¾": 8042,
      "çļĦåīį": 8043,
      "çĽ¸åħ³çļĦéĹ®é¢ĺ": 8044,
      "æ°´çļĦ": 8045,
      "å¾Īå®¹æĺĵ": 8046,
      "å½°": 8047,
      "ä¸ĭäºĨ": 8048,
      "æĪıåī§": 8049,
      "æ²¡æľīæıĲä¾Ľ": 8050,
      "è¡Ģæ¶²": 8051,
      "çļĦç¨³": 8052,
      "ä¸Ģä¸ªæĸ°çļĦ": 8053,
      "åĴĮæĻºèĥ½": 8054,
      "æĪĳæĺ¯ä¸Ģä¸ª": 8055,
      "ä¸İä¹ĭ": 8056,
      "èĥĢ": 8057,
      "çĶ»å®¶": 8058,
      "åĴĮéľĢæ±Ĥ": 8059,
      "å¼ºçĥĪçļĦ": 8060,
      "åĴĮä¸Ģ": 8061,
      "æĴ¼": 8062,
      "åħ¬å¯ĵ": 8063,
      "éŁ³é¢ĳ": 8064,
      "è¾ĥå¤§": 8065,
      "ä½łåı¯ä»¥èĢĥèĻĳ": 8066,
      "èħĶ": 8067,
      "æĹ¶çļĦ": 8068,
      "æııè¿°ä¸Ģç§į": 8069,
      "æįŁå®³": 8070,
      "æĽ¹": 8071,
      "ç¤¾æľĥ": 8072,
      "æķħå®«": 8073,
      "çļĦæłĩå¿Ĺ": 8074,
      "å½»åºķ": 8075,
      "åĩ¤": 8076,
      "çļĦçĤ¹": 8077,
      "ä»¥æ»¡è¶³": 8078,
      "æĿ¥è¡¨è¾¾": 8079,
      "çļĦå¢ŀåĬł": 8080,
      "å¥ĩå¦Ļ": 8081,
      "é²ľèĬ±": 8082,
      "è¯ŃéŁ³åĬ©æīĭ": 8083,
      "åľ¨ä½¿çĶ¨": 8084,
      "å¦Ĥæŀľä½łæĥ³è¦ģ": 8085,
      "çķı": 8086,
      "æĺ¯ä¸Ģç¯ĩ": 8087,
      "èĲ½åľ¨": 8088,
      "ä¹ĺå®¢": 8089,
      "èĩªçĦ¶é£İåħī": 8090,
      "åŃĺåľ¨çĿĢ": 8091,
      "æł¹æį®æĤ¨çļĦ": 8092,
      "çļĦçĻ½": 8093,
      "æĶ¶èİ·": 8094,
      "éļıçĿĢæĹ¶éĹ´": 8095,
      "åĲĳä¸Ĭ": 8096,
      "éĩĳæĺŁ": 8097,
      "çļĦæĹ¶éĹ´åĴĮ": 8098,
      "ä¸įå¦Ĥ": 8099,
      "å¯¹æĸĩæľ¬éĶĻè¯¯è¿Ľè¡Įä¿®æĶ¹": 8100,
      "çļĦçķ": 8101,
      "è§Ģ": 8102,
      "å¤ĩçĶ¨": 8103,
      "å½¢æĪĲäºĨ": 8104,
      "åıĤä¸İèĢħ": 8105,
      "æĬļ": 8106,
      "åĬ¨æ¤įçī©": 8107,
      "åľ¨åĮ»çĸĹ": 8108,
      "çĳļ": 8109,
      "ï¼ļï¼Ī": 8110,
      "çľĭè§ģ": 8111,
      "ç³ĸåĪĨ": 8112,
      "æĸ¯çī¹": 8113,
      "çļĦåĬªåĬĽ": 8114,
      "éĽ¶åĶ®": 8115,
      "ä½Ĩå¥¹": 8116,
      "å¥ī": 8117,
      "æĪĸèĢħæĺ¯": 8118,
      "è¡£çī©": 8119,
      "åĴĮæľªæĿ¥": 8120,
      "è¿İæİ¥": 8121,
      "èº«å¿ĥåģ¥åº·": 8122,
      "æ¸ħæ¾Ī": 8123,
      "èĤ¥èĥĸ": 8124,
      "æĹģè¾¹": 8125,
      "èĩªå·±çļĦæ¢¦æĥ³": 8126,
      "çļĦç¬ĳè¯Ŀ": 8127,
      "é¢ĺæĿĲ": 8128,
      "éĢļè¿ĩä½¿çĶ¨": 8129,
      "çīĽé¡¿": 8130,
      "æµĩ": 8131,
      "æĺİæľĪ": 8132,
      "æ±¡": 8133,
      "å®ĥä»¬ä¹ĭéĹ´çļĦ": 8134,
      "æĭħå¿§": 8135,
      "éļıçĿĢæĬĢæľ¯çļĦ": 8136,
      "æħ¢è·ĳ": 8137,
      "æĪĳæľīä¸Ģä¸ª": 8138,
      "å¯¹ä½ł": 8139,
      "å¸¸çĶ¨": 8140,
      "ä¸Ĭåİ»": 8141,
      "éĹ·": 8142,
      "å·²æľī": 8143,
      "åĨĻä¸Ģç¯ĩåħ³äºİ": 8144,
      "Ġ</": 8145,
      "çĦ¡": 8146,
      "ç¾½æ¯Ľ": 8147,
      "ä»¥ä¸ĭæĺ¯ä¸Ģä¸ª": 8148,
      "åĴĮæķĻèĤ²": 8149,
      "éľĢè¦ģå¸®åĬ©": 8150,
      "çº¦ä¼ļ": 8151,
      "çļĦçª": 8152,
      "æĺŁç©º": 8153,
      "ĠåĴĮ": 8154,
      "çļĦåĩºçİ°": 8155,
      "ä»Ģä¹Īæł·çļĦ": 8156,
      "é¥²": 8157,
      "åħ¬åı¸åĲįç§°": 8158,
      "æ¸´æľĽ": 8159,
      "é¡ŀ": 8160,
      "éģŃéģĩ": 8161,
      "äºĨä»ĸ": 8162,
      "æł¼åħ°": 8163,
      "æľīåĬ©äºİæıĲé«ĺ": 8164,
      "åĪ¶å®ļä¸Ģä¸ª": 8165,
      "åľ£æ¯įéĻ¢": 8166,
      "åĬĽåº¦": 8167,
      "ä½¿å®ĥ": 8168,
      "ä¸İæŃ¤": 8169,
      "èĩ³ä»Ĭ": 8170,
      "æĪĳåĸľæ¬¢åĲĥ": 8171,
      "æĪĳéĿŀå¸¸åĸľæ¬¢": 8172,
      "éľ¸": 8173,
      "éĤ£è¯·ä½ł": 8174,
      "è¿Ľè¡ĮæĢ»ç»ĵ": 8175,
      "ä¼ļè®®ä¸Ĭ": 8176,
      "å®ĩå®ĻçļĦ": 8177,
      "æĶ¹åĨĻä¸º": 8178,
      "å¤§åİ¦": 8179,
      "åĽŀæĬ¥": 8180,
      "è¿ĲåĬ¨åĴĮ": 8181,
      "æĥħæĦŁåĴĮ": 8182,
      "èĢ³æľµ": 8183,
      "åı¯ä»¥éĻįä½İ": 8184,
      "çłį": 8185,
      "èĻļåģĩ": 8186,
      "æĢĿè·¯": 8187,
      "è¥¿æĸ¹": 8188,
      "éħįç½®": 8189,
      "æ£µ": 8190,
      "éĩįè¦ģçļĦè§Ĵèī²": 8191
    },
    "merges": [
      [
        "ä",
        "¸"
      ],
      [
        "ï",
        "¼"
      ],
      [
        "ç",
        "ļ"
      ],
      [
        "çļ",
        "Ħ"
      ],
      [
        "ï¼",
        "Į"
      ],
      [
        "ã",
        "Ģ"
      ],
      [
        "ãĢ",
        "Ĥ"
      ],
      [
        "ä",
        "º"
      ],
      [
        "ä",
        "»"
      ],
      [
        "å",
        "ı"
      ],
      [
        "æ",
        "ľ"
      ],
      [
        "è",
        "¿"
      ],
      [
        "æ",
        "Ī"
      ],
      [
        "å",
        "ħ"
      ],
      [
        "ä",
        "½"
      ],
      [
        "æ",
        "ĺ"
      ],
      [
        "å",
        "¤"
      ],
      [
        "è",
        "¯"
      ],
      [
        "ä¸",
        "Ģ"
      ],
      [
        "æ",
        "ĸ"
      ],
      [
        "å",
        "®"
      ],
      [
        "ç",
        "Ķ"
      ],
      [
        "å",
        "Ī"
      ],
      [
        "å",
        "Ĵ"
      ],
      [
        "å",
        "ľ"
      ],
      [
        "åĴ",
        "Į"
      ],
      [
        "å",
        "Ĳ"
      ],
      [
        "å",
        "Ĭ"
      ],
      [
        "ç",
        "»"
      ],
      [
        "ä",
        "¹"
      ],
      [
        "æĺ",
        "¯"
      ],
      [
        "å",
        "°"
      ],
      [
        "å",
        "Ń"
      ],
      [
        "ä¸",
        "ª"
      ],
      [
        "ä»",
        "¥"
      ],
      [
        "è",
        "®"
      ],
      [
        "ãĢ",
        "ģ"
      ],
      [
        "æĪ",
        "ĳ"
      ],
      [
        "åľ",
        "¨"
      ],
      [
        "äº",
        "º"
      ],
      [
        "ĥ",
        "½"
      ],
      [
        "<",
        "/"
      ],
      [
        "æľ",
        "ī"
      ],
      [
        "ï¼",
        "ļ"
      ],
      [
        "æ",
        "Ĺ"
      ],
      [
        "äº",
        "Ĩ"
      ],
      [
        "åı",
        "¯"
      ],
      [
        "è¿",
        "Ļ"
      ],
      [
        "å",
        "Ľ"
      ],
      [
        "æ",
        "Ŀ"
      ],
      [
        "å",
        "º"
      ],
      [
        "é",
        "ĩ"
      ],
      [
        "å",
        "¹"
      ],
      [
        "å",
        "¸"
      ],
      [
        "ä¸",
        "Ń"
      ],
      [
        "ä",
        "¼"
      ],
      [
        "é",
        "Ģ"
      ],
      [
        "è",
        "¡"
      ],
      [
        "è",
        "ĥ½"
      ],
      [
        "çļĦ",
        "æ"
      ],
      [
        "å",
        "ĩ"
      ],
      [
        "ãĢĤ",
        "</"
      ],
      [
        "å",
        "·"
      ],
      [
        "æĸ",
        "ĩ"
      ],
      [
        "å",
        "Į"
      ],
      [
        "è",
        "¦"
      ],
      [
        "è¦",
        "ģ"
      ],
      [
        "é",
        "¢"
      ],
      [
        "å",
        "¾"
      ],
      [
        "å",
        "¯"
      ],
      [
        "å",
        "Ĩ"
      ],
      [
        "ä¸",
        "º"
      ],
      [
        "è",
        "§"
      ],
      [
        "å",
        "¥"
      ],
      [
        "ç",
        "ī"
      ],
      [
        "ç",
        "§"
      ],
      [
        "ä»",
        "¬"
      ],
      [
        "é",
        "Ĺ"
      ],
      [
        "ç",
        "İ"
      ],
      [
        "å",
        "¼"
      ],
      [
        "ä¸",
        "į"
      ],
      [
        "çĶ",
        "¨"
      ],
      [
        "æ",
        "ķ"
      ],
      [
        "è",
        "Ģ"
      ],
      [
        "å",
        "½"
      ],
      [
        "æ",
        "Ģ"
      ],
      [
        "æ",
        "ŀ"
      ],
      [
        "çĶ",
        "Ł"
      ],
      [
        "ç",
        "Ń"
      ],
      [
        "æ",
        "ı"
      ],
      [
        "æ",
        "ī"
      ],
      [
        "æ",
        "Ń"
      ],
      [
        "åı¯",
        "ä»¥"
      ],
      [
        "é",
        "Ŀ"
      ],
      [
        "å",
        "į"
      ],
      [
        "Ġ",
        "<"
      ],
      [
        "ä",
        "¿"
      ],
      [
        "æ",
        "Ĭ"
      ],
      [
        "æ",
        "ł"
      ],
      [
        "æ",
        "³"
      ],
      [
        "ç",
        "Ľ"
      ],
      [
        "â",
        "Ģ"
      ],
      [
        "æĿ",
        "¥"
      ],
      [
        "è",
        "ĩ"
      ],
      [
        "æ",
        "Ħ"
      ],
      [
        "å",
        "ĵ"
      ],
      [
        "å",
        "¦"
      ],
      [
        "ä¸",
        "ĭ"
      ],
      [
        "ç",
        "Ĳ"
      ],
      [
        "ä¸Ģ",
        "ä¸ª"
      ],
      [
        "æĪ",
        "Ĳ"
      ],
      [
        "å",
        "İ"
      ],
      [
        "æ",
        "ĥ"
      ],
      [
        "æı",
        "Ĳ"
      ],
      [
        "æ",
        "°"
      ],
      [
        "åĪ",
        "°"
      ],
      [
        "ä»",
        "ĸ"
      ],
      [
        "æ",
        "Ľ"
      ],
      [
        "åŃ",
        "¦"
      ],
      [
        "æ",
        "Ļ"
      ],
      [
        "å¦",
        "Ĥ"
      ],
      [
        "è¡",
        "Į"
      ],
      [
        "åĩ",
        "º"
      ],
      [
        "å",
        "ĳ"
      ],
      [
        "å",
        "¿"
      ],
      [
        "æĹ",
        "¶"
      ],
      [
        "å¯",
        "¹"
      ],
      [
        "æ",
        "ĭ"
      ],
      [
        "ä½",
        "ł"
      ],
      [
        "åŃ",
        "Ĳ"
      ],
      [
        "ä",
        "¾"
      ],
      [
        "äº",
        "İ"
      ],
      [
        "æ",
        "İ"
      ],
      [
        "åľ",
        "°"
      ],
      [
        "é¢",
        "ĺ"
      ],
      [
        "ä¸",
        "Ĭ"
      ],
      [
        "ç",
        "«"
      ],
      [
        "æ",
        "Ķ"
      ],
      [
        "å°",
        "ı"
      ],
      [
        "è",
        "´"
      ],
      [
        "å¥",
        "½"
      ],
      [
        "ä¼",
        "ļ"
      ],
      [
        "æĸ",
        "¹"
      ],
      [
        "çŃ",
        "ī"
      ],
      [
        "æľ",
        "¬"
      ],
      [
        "åĪ",
        "Ĩ"
      ],
      [
        "èĩ",
        "ª"
      ],
      [
        "æĽ",
        "´"
      ],
      [
        "äº",
        "Ľ"
      ],
      [
        "å¤",
        "ļ"
      ],
      [
        "æ",
        "µ"
      ],
      [
        "æ",
        "¯"
      ],
      [
        "è",
        "µ"
      ],
      [
        "å¤",
        "§"
      ],
      [
        "å",
        "±"
      ],
      [
        "æ",
        "į"
      ],
      [
        "ï¼",
        "Ł"
      ],
      [
        "ä½",
        "ľ"
      ],
      [
        "åĬ",
        "¨"
      ],
      [
        "å·",
        "¥"
      ],
      [
        "çī",
        "©"
      ],
      [
        "ç",
        "º"
      ],
      [
        "åħ",
        "³"
      ],
      [
        "è",
        "¾"
      ],
      [
        "å¹",
        "¶"
      ],
      [
        "åı",
        "ĳ"
      ],
      [
        "ç",
        "®"
      ],
      [
        "æ",
        "Į"
      ],
      [
        "ç",
        "±"
      ],
      [
        "é",
        "£"
      ],
      [
        "é",
        "ľ"
      ],
      [
        "æĪĳ",
        "ä»¬"
      ],
      [
        "éĿ",
        "¢"
      ],
      [
        "æ",
        "´"
      ],
      [
        "å®",
        "ļ"
      ],
      [
        "æľ",
        "Ģ"
      ],
      [
        "åħ",
        "¶"
      ],
      [
        "æŀ",
        "ľ"
      ],
      [
        "æ",
        "¬"
      ],
      [
        "å",
        "Ł"
      ],
      [
        "ç§",
        "į"
      ],
      [
        "çİ",
        "°"
      ],
      [
        "çļĦ",
        "ç"
      ],
      [
        "è¿",
        "Ľ"
      ],
      [
        "æ³",
        "ķ"
      ],
      [
        "é",
        "Ļ"
      ],
      [
        "æ",
        "Ĥ"
      ],
      [
        "è¿",
        "ĩ"
      ],
      [
        "éĹ",
        "®"
      ],
      [
        "å",
        "ģ"
      ],
      [
        "æ",
        "¸"
      ],
      [
        "ä½",
        "ĵ"
      ],
      [
        "è",
        "ī"
      ],
      [
        "æį",
        "®"
      ],
      [
        "å¤",
        "©"
      ],
      [
        "å®",
        "ĥ"
      ],
      [
        "ç»",
        "Ļ"
      ],
      [
        "åĬ",
        "Ľ"
      ],
      [
        "çĲ",
        "Ĩ"
      ],
      [
        "æĺ",
        "İ"
      ],
      [
        "éľ",
        "Ģ"
      ],
      [
        "æ",
        "²"
      ],
      [
        "å°",
        "Ĩ"
      ],
      [
        "ç±",
        "»"
      ],
      [
        "åº",
        "Ķ"
      ],
      [
        "åĬ",
        "ł"
      ],
      [
        "æĸ",
        "°"
      ],
      [
        "é",
        "ģ"
      ],
      [
        "ç",
        "Ĥ"
      ],
      [
        "åĮ",
        "ĸ"
      ],
      [
        "æĢ",
        "§"
      ],
      [
        "ç",
        "Ħ"
      ],
      [
        "åĲ",
        "Į"
      ],
      [
        "é",
        "«"
      ],
      [
        "æĪ",
        "ĸ"
      ],
      [
        "ä½",
        "¿"
      ],
      [
        "åĽ",
        "ł"
      ],
      [
        "å¸",
        "¸"
      ],
      [
        "éĩ",
        "į"
      ],
      [
        "ä¿",
        "Ŀ"
      ],
      [
        "åı",
        "¥"
      ],
      [
        "ç",
        "ľ"
      ],
      [
        "é«",
        "ĺ"
      ],
      [
        "è",
        "½"
      ],
      [
        "æĦ",
        "Ł"
      ],
      [
        "å®",
        "¶"
      ],
      [
        "ä¹",
        "Ł"
      ],
      [
        "å½",
        "±"
      ],
      [
        "è",
        "¶"
      ],
      [
        "æľ",
        "º"
      ],
      [
        "ä¸",
        "»"
      ],
      [
        "æ",
        "±"
      ],
      [
        "é",
        "Ķ"
      ],
      [
        "è¯",
        "Ń"
      ],
      [
        "é",
        "ĺ"
      ],
      [
        "çĦ",
        "¶"
      ],
      [
        "ç«",
        "ł"
      ],
      [
        "âĢ",
        "Ŀ"
      ],
      [
        "å¾",
        "Ĺ"
      ],
      [
        "æķ",
        "°"
      ],
      [
        "æĸĩ",
        "ç«ł"
      ],
      [
        "éĢ",
        "ļ"
      ],
      [
        "åĵ",
        "ģ"
      ],
      [
        "âĢ",
        "ľ"
      ],
      [
        "ç",
        "³"
      ],
      [
        "éľĢ",
        "è¦ģ"
      ],
      [
        "çĶ",
        "µ"
      ],
      [
        "æĻ",
        "º"
      ],
      [
        "è",
        "°"
      ],
      [
        "æĬ",
        "Ģ"
      ],
      [
        "è§",
        "£"
      ],
      [
        "æĸĩ",
        "æľ¬"
      ],
      [
        "ä¹",
        "ĭ"
      ],
      [
        "æĤ",
        "¨"
      ],
      [
        "ä¹",
        "Ī"
      ],
      [
        "æĥ",
        "ħ"
      ],
      [
        "éĹ®",
        "é¢ĺ"
      ],
      [
        "åº",
        "¦"
      ],
      [
        "ç",
        "Ł"
      ],
      [
        "å",
        "ī"
      ],
      [
        "è¡",
        "¨"
      ],
      [
        "èĢ",
        "Į"
      ],
      [
        "æ",
        "ģ"
      ],
      [
        "ç»",
        "ı"
      ],
      [
        "æĻº",
        "èĥ½"
      ],
      [
        "è¯",
        "·"
      ],
      [
        "ç",
        "Ŀ"
      ],
      [
        "å¾",
        "Ī"
      ],
      [
        "éĹ",
        "´"
      ],
      [
        "å",
        "ĸ"
      ],
      [
        "æŃ",
        "¤"
      ],
      [
        "è",
        "Ĭ"
      ],
      [
        "ç",
        "¾"
      ],
      [
        "å",
        "¢"
      ],
      [
        "åħ",
        "¬"
      ],
      [
        "åĽ",
        "½"
      ],
      [
        "éĩ",
        "ı"
      ],
      [
        "ç",
        "©"
      ],
      [
        "çĤ",
        "¹"
      ],
      [
        "ç",
        "¤"
      ],
      [
        "æľ",
        "¯"
      ],
      [
        "èī",
        "²"
      ],
      [
        "è",
        "Ĥ"
      ],
      [
        "èĢ",
        "ħ"
      ],
      [
        "è¯",
        "į"
      ],
      [
        "å¹",
        "´"
      ],
      [
        "æ°",
        "Ķ"
      ],
      [
        "å®",
        "ŀ"
      ],
      [
        "å",
        "»"
      ],
      [
        "åı",
        "ĸ"
      ],
      [
        "å",
        "Ģ"
      ],
      [
        "è¿Ļ",
        "ä¸ª"
      ],
      [
        "ä¿",
        "¡"
      ],
      [
        "ä¹",
        "ł"
      ],
      [
        "åĲ",
        "į"
      ],
      [
        "ç",
        "¨"
      ],
      [
        "å¿",
        "ĥ"
      ],
      [
        "ä½",
        "Ĩ"
      ],
      [
        "åĲ",
        "Ī"
      ],
      [
        "æĦ",
        "ı"
      ],
      [
        "è¯",
        "¥"
      ],
      [
        "ä¸",
        "ļ"
      ],
      [
        "ä¾",
        "Ľ"
      ],
      [
        "ç",
        "ĸ"
      ],
      [
        "è®",
        "¡"
      ],
      [
        "åĲ",
        "İ"
      ],
      [
        "é",
        "Ĥ"
      ],
      [
        "ç",
        "¡"
      ],
      [
        "ä»¥",
        "ä¸ĭ"
      ],
      [
        "äº",
        "ĭ"
      ],
      [
        "æī",
        "Ģ"
      ],
      [
        "ä»",
        "İ"
      ],
      [
        "è¿",
        "ĺ"
      ],
      [
        "å»",
        "º"
      ],
      [
        "æ",
        "®"
      ],
      [
        "çĽ",
        "¸"
      ],
      [
        "çĿ",
        "Ģ"
      ],
      [
        "çĲ",
        "ĥ"
      ],
      [
        "ä¸Ģ",
        "äºĽ"
      ],
      [
        "é",
        "ĥ½"
      ],
      [
        "æ´",
        "»"
      ],
      [
        "åĮ",
        "ħ"
      ],
      [
        "æıĲ",
        "ä¾Ľ"
      ],
      [
        "ä¸",
        "İ"
      ],
      [
        "ç¾",
        "İ"
      ],
      [
        "æł",
        "¹"
      ],
      [
        "è¿Ľ",
        "è¡Į"
      ],
      [
        "æ",
        "Ł"
      ],
      [
        "åı¥",
        "åŃĲ"
      ],
      [
        "å¼",
        "ı"
      ],
      [
        "ç",
        "½"
      ],
      [
        "é£",
        "Ł"
      ],
      [
        "è¿",
        "°"
      ],
      [
        "å±",
        "ķ"
      ],
      [
        "éĩ",
        "Į"
      ],
      [
        "äºº",
        "å·¥"
      ],
      [
        "åħ",
        "¥"
      ],
      [
        "åħ",
        "¨"
      ],
      [
        "å¤",
        "ĸ"
      ],
      [
        "é",
        "¡"
      ],
      [
        "çİ",
        "¯"
      ],
      [
        "ç",
        "ķ"
      ],
      [
        "çī",
        "¹"
      ],
      [
        "ä½¿",
        "çĶ¨"
      ],
      [
        "è",
        "Ĳ"
      ],
      [
        "ç",
        "´"
      ],
      [
        "æĥ",
        "³"
      ],
      [
        "éĿ",
        "ŀ"
      ],
      [
        "äººå·¥",
        "æĻºèĥ½"
      ],
      [
        "é",
        "¦"
      ],
      [
        "ç",
        "¯"
      ],
      [
        "åĨ",
        "ħ"
      ],
      [
        "æŃ",
        "£"
      ],
      [
        "è",
        "¢"
      ],
      [
        "æ",
        "¡"
      ],
      [
        "å¼",
        "Ģ"
      ],
      [
        "å½",
        "ĵ"
      ],
      [
        "åİ",
        "»"
      ],
      [
        "é",
        "ļ"
      ],
      [
        "æł¹",
        "æį®"
      ],
      [
        "é",
        "ķ"
      ],
      [
        "æģ",
        "¯"
      ],
      [
        "æ",
        "·"
      ],
      [
        "åı",
        "ĺ"
      ],
      [
        "æ°",
        "´"
      ],
      [
        "æ¯",
        "Ķ"
      ],
      [
        "æ®",
        "µ"
      ],
      [
        "åĨ",
        "Ļ"
      ],
      [
        "æĺ¯",
        "ä¸Ģ"
      ],
      [
        "å",
        "ŀ"
      ],
      [
        "é",
        "ĥ"
      ],
      [
        "ç³",
        "»"
      ],
      [
        "è",
        "·"
      ],
      [
        "è",
        "ģ"
      ],
      [
        "åĬ",
        "©"
      ],
      [
        "è¯",
        "´"
      ],
      [
        "åŃ¦",
        "ä¹ł"
      ],
      [
        "ç¨",
        "ĭ"
      ],
      [
        "åĪ",
        "¶"
      ],
      [
        "åħ",
        "·"
      ],
      [
        "ç¡",
        "®"
      ],
      [
        "å¸",
        "Ĥ"
      ],
      [
        "ä»",
        "Ģ"
      ],
      [
        "è®",
        "©"
      ],
      [
        "é",
        "Ľ"
      ],
      [
        "æĮ",
        "ģ"
      ],
      [
        "éģ",
        "ĵ"
      ],
      [
        "å",
        "Ŀ"
      ],
      [
        "çľ",
        "ĭ"
      ],
      [
        "ç¯",
        "ĩ"
      ],
      [
        "ç",
        "¼"
      ],
      [
        "äº",
        "§"
      ],
      [
        "èµ",
        "·"
      ],
      [
        "ç",
        "ĥ"
      ],
      [
        "å",
        "ķ"
      ],
      [
        "ç»",
        "ĵ"
      ],
      [
        "ä»Ģ",
        "ä¹Ī"
      ],
      [
        "æĬĢ",
        "æľ¯"
      ],
      [
        "å¸",
        "®"
      ],
      [
        "è",
        "º"
      ],
      [
        "åı",
        "Ĭ"
      ],
      [
        "è¯",
        "Ŀ"
      ],
      [
        "éĤ",
        "£"
      ],
      [
        "ç",
        "¬"
      ],
      [
        "çĽ",
        "®"
      ],
      [
        "éĥ",
        "¨"
      ],
      [
        "è",
        "ĭ"
      ],
      [
        "ä½",
        "ķ"
      ],
      [
        "éķ",
        "¿"
      ],
      [
        "éĿŀ",
        "å¸¸"
      ],
      [
        "è",
        "į"
      ],
      [
        "åĬ",
        "¡"
      ],
      [
        "ç®",
        "Ĺ"
      ],
      [
        "æ¯",
        "ı"
      ],
      [
        "è¢",
        "«"
      ],
      [
        "èº",
        "«"
      ],
      [
        "ç",
        "ĭ"
      ],
      [
        "æĹ",
        "¥"
      ],
      [
        "åģ",
        "¥"
      ],
      [
        "ç§",
        "ĳ"
      ],
      [
        "å°",
        "ĳ"
      ],
      [
        "å·",
        "±"
      ],
      [
        "åī",
        "į"
      ],
      [
        "å",
        "Ļ"
      ],
      [
        "åĸ",
        "ľ"
      ],
      [
        "é",
        "ħ"
      ],
      [
        "æĭ",
        "¬"
      ],
      [
        "èĩª",
        "å·±"
      ],
      [
        "éĢ",
        "Ĥ"
      ],
      [
        "åľ",
        "º"
      ],
      [
        "åı",
        "Ĺ"
      ],
      [
        "å®",
        "¹"
      ],
      [
        "åı¯",
        "èĥ½"
      ],
      [
        "æ¬",
        "¢"
      ],
      [
        "åĽ",
        "ŀ"
      ],
      [
        "æĹ",
        "ł"
      ],
      [
        "ä¿¡",
        "æģ¯"
      ],
      [
        "ä»ĸ",
        "ä»¬"
      ],
      [
        "åĻ",
        "¨"
      ],
      [
        "éĢ",
        "ī"
      ],
      [
        "åĮ",
        "»"
      ],
      [
        "äº",
        "¤"
      ],
      [
        "ä»",
        "£"
      ],
      [
        "å¥½",
        "çļĦ"
      ],
      [
        "åŀ",
        "ĭ"
      ],
      [
        "é¢",
        "Ĩ"
      ],
      [
        "åĪ",
        "«"
      ],
      [
        "è",
        "Ļ"
      ],
      [
        "ç",
        "ł"
      ],
      [
        "çĶµ",
        "å½±"
      ],
      [
        "å¤",
        "Ħ"
      ],
      [
        "è",
        "¨"
      ],
      [
        "é",
        "¥"
      ],
      [
        "çŃ",
        "Ķ"
      ],
      [
        "é",
        "ª"
      ],
      [
        "æ",
        "¶"
      ],
      [
        "ç",
        "Ī"
      ],
      [
        "åĪ",
        "©"
      ],
      [
        "ä½",
        "į"
      ],
      [
        "è´",
        "¨"
      ],
      [
        "æ",
        "»"
      ],
      [
        "è®",
        "®"
      ],
      [
        "é£",
        "İ"
      ],
      [
        "ä¸",
        "¤"
      ],
      [
        "å¹",
        "³"
      ],
      [
        "å¢",
        "ĥ"
      ],
      [
        "æ¡",
        "Ī"
      ],
      [
        "æī",
        "ĭ"
      ],
      [
        "å",
        "§"
      ],
      [
        "ç",
        "Ĺ"
      ],
      [
        "è¿Ļ",
        "äºĽ"
      ],
      [
        "ä¾",
        "ĭ"
      ],
      [
        "å¦Ĥ",
        "æŀľ"
      ],
      [
        "éĢļ",
        "è¿ĩ"
      ],
      [
        "éĩį",
        "è¦ģ"
      ],
      [
        "é",
        "Ł"
      ],
      [
        "ä¸Ń",
[...]
